{
  "version": "1.0",
  "truncation": null,
  "padding": null,
  "added_tokens": [
    {
      "id": 0,
      "content": "<|endoftext|>",
      "single_word": false,
      "lstrip": false,
      "rstrip": false,
      "normalized": false,
      "special": true
    },
    {
      "id": 1,
      "content": "<|pad|>",
      "single_word": false,
      "lstrip": false,
      "rstrip": false,
      "normalized": false,
      "special": true
    },
    {
      "id": 2,
      "content": "<|bos|>",
      "single_word": false,
      "lstrip": false,
      "rstrip": false,
      "normalized": false,
      "special": true
    },
    {
      "id": 3,
      "content": "<|eos|>",
      "single_word": false,
      "lstrip": false,
      "rstrip": false,
      "normalized": false,
      "special": true
    }
  ],
  "normalizer": null,
  "pre_tokenizer": null,
  "post_processor": null,
  "decoder": null,
  "model": {
    "type": "BPE",
    "dropout": null,
    "unk_token": null,
    "continuing_subword_prefix": null,
    "end_of_word_suffix": null,
    "fuse_unk": false,
    "byte_fallback": false,
    "ignore_merges": false,
    "vocab": {
      "<|endoftext|>": 0,
      "<|pad|>": 1,
      "<|bos|>": 2,
      "<|eos|>": 3,
      "\n": 4,
      " ": 5,
      "!": 6,
      "\"": 7,
      "#": 8,
      "$": 9,
      "%": 10,
      "'": 11,
      "(": 12,
      ")": 13,
      "*": 14,
      "+": 15,
      ",": 16,
      "-": 17,
      ".": 18,
      "/": 19,
      "0": 20,
      "1": 21,
      "2": 22,
      "3": 23,
      "4": 24,
      "5": 25,
      "6": 26,
      "7": 27,
      "8": 28,
      "9": 29,
      ":": 30,
      ";": 31,
      "<": 32,
      "=": 33,
      ">": 34,
      "?": 35,
      "@": 36,
      "A": 37,
      "B": 38,
      "C": 39,
      "D": 40,
      "E": 41,
      "F": 42,
      "G": 43,
      "H": 44,
      "I": 45,
      "J": 46,
      "K": 47,
      "L": 48,
      "M": 49,
      "N": 50,
      "O": 51,
      "P": 52,
      "Q": 53,
      "R": 54,
      "S": 55,
      "T": 56,
      "U": 57,
      "V": 58,
      "W": 59,
      "X": 60,
      "Y": 61,
      "Z": 62,
      "[": 63,
      "\\": 64,
      "]": 65,
      "_": 66,
      "`": 67,
      "a": 68,
      "b": 69,
      "c": 70,
      "d": 71,
      "e": 72,
      "f": 73,
      "g": 74,
      "h": 75,
      "i": 76,
      "j": 77,
      "k": 78,
      "l": 79,
      "m": 80,
      "n": 81,
      "o": 82,
      "p": 83,
      "q": 84,
      "r": 85,
      "s": 86,
      "t": 87,
      "u": 88,
      "v": 89,
      "w": 90,
      "x": 91,
      "y": 92,
      "z": 93,
      "{": 94,
      "|": 95,
      "}": 96,
      "°": 97,
      "А": 98,
      "Б": 99,
      "В": 100,
      "Г": 101,
      "Д": 102,
      "Е": 103,
      "Ж": 104,
      "З": 105,
      "И": 106,
      "К": 107,
      "Л": 108,
      "М": 109,
      "Н": 110,
      "О": 111,
      "П": 112,
      "Р": 113,
      "С": 114,
      "Т": 115,
      "У": 116,
      "Ф": 117,
      "Х": 118,
      "Ц": 119,
      "Ч": 120,
      "Ш": 121,
      "Ь": 122,
      "Э": 123,
      "Ю": 124,
      "Я": 125,
      "а": 126,
      "б": 127,
      "в": 128,
      "г": 129,
      "д": 130,
      "е": 131,
      "ж": 132,
      "з": 133,
      "и": 134,
      "й": 135,
      "к": 136,
      "л": 137,
      "м": 138,
      "н": 139,
      "о": 140,
      "п": 141,
      "р": 142,
      "с": 143,
      "т": 144,
      "у": 145,
      "ф": 146,
      "х": 147,
      "ц": 148,
      "ч": 149,
      "ш": 150,
      "щ": 151,
      "ъ": 152,
      "ы": 153,
      "ь": 154,
      "э": 155,
      "ю": 156,
      "я": 157,
      "ё": 158,
      "–": 159,
      "—": 160,
      "₁": 161,
      "₂": 162,
      "₆": 163,
      "→": 164,
      "⏱": 165,
      "⚠": 166,
      "⚡": 167,
      "✅": 168,
      "❌": 169,
      "️": 170,
      "🐌": 171,
      "👤": 172,
      "👥": 173,
      "👷": 174,
      "💥": 175,
      "💾": 176,
      "📁": 177,
      "📂": 178,
      "📄": 179,
      "📊": 180,
      "📝": 181,
      "📦": 182,
      "📨": 183,
      "📰": 184,
      "🔄": 185,
      "🔚": 186,
      "🔧": 187,
      "😄": 188,
      "🚀": 189,
      "🚨": 190,
      "🚫": 191,
      "🧹": 192,
      "  ": 193,
      "    ": 194,
      ", ": 195,
      "ст": 196,
      ": ": 197,
      "ро": 198,
      "е ": 199,
      "о ": 200,
      "ет": 201,
      "        ": 202,
      "ни": 203,
      "ь ": 204,
      ". ": 205,
      "и ": 206,
      "я ": 207,
      "про": 208,
      "ра": 209,
      "а ": 210,
      "но": 211,
      "\n        ": 212,
      "in": 213,
      "se": 214,
      "вет": 215,
      "s ": 216,
      "on": 217,
      "прос": 218,
      "твет": 219,
      "at": 220,
      "опрос": 221,
      "s>": 222,
      "Ответ": 223,
      "\nОтвет": 224,
      "/s>": 225,
      "</s>": 226,
      "Вопрос": 227,
      "\nОтвет: ": 228,
      "Вопрос: ": 229,
      "re": 230,
      "?\nОтвет: ": 231,
      "ре": 232,
      "по": 233,
      ".</s>": 234,
      "ть ": 235,
      "на": 236,
      "то ": 237,
      "от": 238,
      " с": 239,
      "ов": 240,
      "ак": 241,
      "e ": 242,
      "че": 243,
      "an": 244,
      "й ": 245,
      "or": 246,
      "en": 247,
      "ti": 248,
      "er": 249,
      "ит": 250,
      "\n    ": 251,
      "во": 252,
      "st": 253,
      "не": 254,
      "ер": 255,
      "ва": 256,
      "ль": 257,
      "м ": 258,
      "ны": 259,
      "в ": 260,
      "мо": 261,
      "да": 262,
      "— ": 263,
      "th": 264,
      "al": 265,
      "ен": 266,
      "d ": 267,
      "ени": 268,
      "не ": 269,
      "из": 270,
      "об": 271,
      "''": 272,
      "ка": 273,
      "sel": 274,
      "ы ": 275,
      "le": 276,
      "ко": 277,
      "ак ": 278,
      "self": 279,
      "но ": 280,
      "те": 281,
      "ro": 282,
      "ри": 283,
      "ar": 284,
      "de": 285,
      "ся ": 286,
      "ет ": 287,
      "ur": 288,
      "t ": 289,
      "ла": 290,
      "то": 291,
      "за": 292,
      "у ": 293,
      "од": 294,
      "ру": 295,
      "ing": 296,
      "де": 297,
      "сл": 298,
      "= ": 299,
      ":\n        ": 300,
      "ча": 301,
      "ност": 302,
      "f ": 303,
      "me": 304,
      "te": 305,
      "ств": 306,
      "co": 307,
      "х ": 308,
      "ли": 309,
      "ма": 310,
      "ста": 311,
      "ce": 312,
      "ми": 313,
      "ser": 314,
      "сто": 315,
      ")\n        ": 316,
      "Как ": 317,
      "self.": 318,
      "y ": 319,
      "до": 320,
      "на ": 321,
      "ion": 322,
      "го ": 323,
      "tion": 324,
      "ing ": 325,
      "ти": 326,
      "ac": 327,
      "ic": 328,
      "ор": 329,
      "ть": 330,
      "ви": 331,
      "лю": 332,
      "Вопрос: Как ": 333,
      "вы": 334,
      "при": 335,
      "it": 336,
      "and ": 337,
      "се": 338,
      "ло": 339,
      "ме": 340,
      "ле": 341,
      "as": 342,
      "'''": 343,
      "ge": 344,
      "с ": 345,
      "id": 346,
      "user": 347,
      "ци": 348,
      "ду": 349,
      "ation": 350,
      "t(": 351,
      "т ": 352,
      "?\nОтвет: С": 353,
      "бот": 354,
      "ли ": 355,
      "ин": 356,
      "го": 357,
      "это ": 358,
      "to": 359,
      "Вопрос: Ч": 360,
      "ве": 361,
      ", а ": 362,
      "ит ": 363,
      "ля ": 364,
      ", к": 365,
      "- ": 366,
      "ки": 367,
      ") ": 368,
      "con": 369,
      "tr": 370,
      "мы": 371,
      "бы": 372,
      "mp": 373,
      "работ": 374,
      "def ": 375,
      "пе": 376,
      "ate": 377,
      "ul": 378,
      "al ": 379,
      "со": 380,
      "что ": 381,
      "для ": 382,
      "бе": 383,
      "Вопрос: Что ": 384,
      "il": 385,
      "ить ": 386,
      "да ": 387,
      "ля": 388,
      "бо": 389,
      "\n    \n    ": 390,
      "ис": 391,
      "лу": 392,
      "n ": 393,
      "un": 394,
      "мож": 395,
      "ну": 396,
      "зна": 397,
      "li": 398,
      "чем": 399,
      "ши": 400,
      "По": 401,
      "сть ": 402,
      "):\n        ": 403,
      "ня": 404,
      "men": 405,
      "раз": 406,
      "стоя": 407,
      "pro": 408,
      "ter": 409,
      "та": 410,
      "ова": 411,
      "В ": 412,
      "мен": 413,
      ". Н": 414,
      "ch": 415,
      "pr": 416,
      "ку": 417,
      "', ": 418,
      "lo": 419,
      "дру": 420,
      "t_": 421,
      "in ": 422,
      "част": 423,
      "к ": 424,
      "ако": 425,
      "рас": 426,
      "cur": 427,
      "па": 428,
      "res": 429,
      "(self": 430,
      "е, ": 431,
      "жиз": 432,
      "m ": 433,
      "Это ": 434,
      "ще": 435,
      "щи": 436,
      "ret": 437,
      "\n\n": 438,
      "na": 439,
      "es ": 440,
      "s, ": 441,
      "do": 442,
      "ю ": 443,
      "от ": 444,
      "ове": 445,
      "prin": 446,
      "ся": 447,
      "люб": 448,
      "retur": 449,
      "вер": 450,
      "гда ": 451,
      ", что ": 452,
      "ab": 453,
      "ne": 454,
      "po": 455,
      ", но ": 456,
      "уд": 457,
      "return ": 458,
      "mo": 459,
      "s. ": 460,
      "ка ": 461,
      "ем ": 462,
      "работа": 463,
      "ma": 464,
      "л ": 465,
      "\n                ": 466,
      "— это ": 467,
      "ми ": 468,
      "ща": 469,
      ", по": 470,
      "print(": 471,
      "з ": 472,
      "чи": 473,
      "ить": 474,
      "ный ": 475,
      "wor": 476,
      "га": 477,
      "# ": 478,
      "cl": 479,
      "ение ": 480,
      "to ": 481,
      "пере": 482,
      "сво": 483,
      "or ": 484,
      "ction": 485,
      "ги": 486,
      "is ": 487,
      "тако": 488,
      "ход": 489,
      "стра": 490,
      "ние ": 491,
      "ap": 492,
      "ex": 493,
      "си": 494,
      ". Это ": 495,
      "мысл": 496,
      "чему ": 497,
      "нима": 498,
      "ное ": 499,
      "gh": 500,
      "пра": 501,
      "рен": 502,
      "name": 503,
      "el": 504,
      "vi": 505,
      "Вопрос: По": 506,
      "the ": 507,
      "быть ": 508,
      "di": 509,
      "жд": 510,
      "ры": 511,
      "еш": 512,
      "ша": 513,
      "ния ": 514,
      "__": 515,
      "ss": 516,
      "Вопрос: Что тако": 517,
      "Вопрос: Что такое ": 518,
      "fi": 519,
      "ется ": 520,
      "льз": 521,
      "work": 522,
      "ith": 523,
      "пу": 524,
      "рова": 525,
      "at ": 526,
      "ная ": 527,
      "м, ": 528,
      "')": 529,
      "ou": 530,
      "сти": 531,
      "\n    \n    def ": 532,
      "()": 533,
      "Ты ": 534,
      "е. ": 535,
      "нны": 536,
      "пре": 537,
      "жизни": 538,
      "! ": 539,
      "no": 540,
      ":\n    ": 541,
      "ra": 542,
      "ди": 543,
      "Про": 544,
      "')\n        ": 545,
      "dat": 546,
      "жи": 547,
      "str": 548,
      "f'": 549,
      "re ": 550,
      " = ": 551,
      "if ": 552,
      "вс": 553,
      "все": 554,
      "са": 555,
      "ения": 556,
      "Вопрос: Почему ": 557,
      "ad": 558,
      "ко ": 559,
      "нов": 560,
      "ste": 561,
      "работает ": 562,
      "ci": 563,
      "with": 564,
      "гра": 565,
      "se ": 566,
      "Вопрос: Ты ": 567,
      "ите": 568,
      "ность ": 569,
      ", кот": 570,
      "('": 571,
      "ver": 572,
      "\n            ": 573,
      "es": 574,
      "sy": 575,
      "ют ": 576,
      "time": 577,
      "Вопрос: Как работает ": 578,
      "cre": 579,
      "ем": 580,
      "хо": 581,
      "ый ": 582,
      "дела": 583,
      "сли ": 584,
      ":\n            ": 585,
      "бу": 586,
      "чит ": 587,
      " с ": 588,
      "(self, ": 589,
      "ol": 590,
      "тер": 591,
      "чу": 592,
      "воз": 593,
      "нут": 594,
      "data": 595,
      "бя ": 596,
      "же ": 597,
      "ности": 598,
      "_id": 599,
      "qu": 600,
      "us": 601,
      "д ": 602,
      "жа": 603,
      "лько ": 604,
      "ство ": 605,
      "мысл ": 606,
      "``": 607,
      "ты ": 608,
      "це": 609,
      "tic": 610,
      "Мо": 611,
      "су": 612,
      "ные ": 613,
      "ность": 614,
      "'''\n        ": 615,
      "bo": 616,
      ". С": 617,
      "ren": 618,
      " се": 619,
      "tex": 620,
      "comp": 621,
      "me ": 622,
      "ts ": 623,
      "ба": 624,
      ", and ": 625,
      ". О": 626,
      "часть": 627,
      "with ": 628,
      "='": 629,
      "he": 630,
      "ve ": 631,
      "за ": 632,
      "лове": 633,
      "ыва": 634,
      "чере": 635,
      "post": 636,
      "прав": 637,
      "fe": 638,
      "w ": 639,
      "бод": 640,
      "или ": 641,
      "мы ": 642,
      "ше": 643,
      ": {": 644,
      "овь ": 645,
      "ation ": 646,
      "cu": 647,
      "d_": 648,
      "аль": 649,
      "вре": 650,
      "ния": 651,
      "ного ": 652,
      "значит ": 653,
      "? ": 654,
      "db": 655,
      "si": 656,
      "sp": 657,
      "му": 658,
      "пы": 659,
      "тра": 660,
      "ние": 661,
      "польз": 662,
      "rou": 663,
      "': ": 664,
      "as ": 665,
      "gen": 666,
      "жно ": 667,
      "ь, ": 668,
      "челове": 669,
      "тель": 670,
      "resul": 671,
      "fro": 672,
      "ri": 673,
      "su": 674,
      "ve": 675,
      "де ": 676,
      "й с": 677,
      "ют": 678,
      "чес": 679,
      "стви": 680,
      "ic ": 681,
      "au": 682,
      "du": 683,
      "for ": 684,
      "же": 685,
      "зда": 686,
      "лен": 687,
      "из ": 688,
      ")\n            ": 689,
      "можно ": 690,
      "from ": 691,
      "крас": 692,
      "мени": 693,
      "?\nОтвет: Д": 694,
      "пол": 695,
      "er ": 696,
      "данны": 697,
      "ности ": 698,
      "print(f'": 699,
      "imp": 700,
      "sor": 701,
      "ту": 702,
      "Вопрос: В ": 703,
      "настоя": 704,
      "syste": 705,
      "is": 706,
      "жда": 707,
      "сь ": 708,
      "соб": 709,
      "ство": 710,
      "е — ": 711,
      "file": 712,
      ", котор": 713,
      "если ": 714,
      "й, ": 715,
      "ения ": 716,
      "когда ": 717,
      "щая ": 718,
      "create": 719,
      "ag": 720,
      "На": 721,
      "внут": 722,
      "как ": 723,
      "сту": 724,
      "):\n        '''": 725,
      "через ": 726,
      "mm": 727,
      "мер": 728,
      "еть ": 729,
      "овер": 730,
      "ment": 731,
      "щий ": 732,
      "все ": 733,
      "a ": 734,
      "tu": 735,
      "вля": 736,
      "м. ": 737,
      "уч": 738,
      "чт": 739,
      "под": 740,
      "ort ": 741,
      "выб": 742,
      "cont": 743,
      ". Не ": 744,
      "Th": 745,
      "За": 746,
      "оста": 747,
      "люд": 748,
      "get_": 749,
      "-то ": 750,
      "Wh": 751,
      "age": 752,
      "pl": 753,
      "pat": 754,
      "s.</s>": 755,
      "ки ": 756,
      "отно": 757,
      "каж": 758,
      "test": 759,
      "ass ": 760,
      "proce": 761,
      "ow ": 762,
      "в с": 763,
      "ек": 764,
      "ос": 765,
      "ря": 766,
      "тво": 767,
      "one": 768,
      "ится ": 769,
      "ться ": 770,
      "луч": 771,
      "curren": 772,
      "import ": 773,
      ",\n                ": 774,
      "ay": 775,
      "ele": 776,
      "ir": 777,
      ". В ": 778,
      "?\nОтвет: Про": 779,
      "print('": 780,
      "ph": 781,
      "Вопрос: Wh": 782,
      "and": 783,
      "ance": 784,
      "class ": 785,
      "..": 786,
      "ино": 787,
      "так ": 788,
      "ум": 789,
      ", если ": 790,
      "сте": 791,
      "ask": 792,
      "', '": 793,
      "любовь ": 794,
      "мысл жизни": 795,
      "How ": 796,
      "ase": 797,
      "ly ": 798,
      "of ": 799,
      "ue": 800,
      "гов": 801,
      "его ": 802,
      "кот": 803,
      "н ": 804,
      "ые ": 805,
      ". И": 806,
      "Вопрос: How ": 807,
      " соб": 808,
      "важ": 809,
      "ных ": 810,
      "дей": 811,
      "col": 812,
      "чув": 813,
      "внутрен": 814,
      "Вопрос: What ": 815,
      "), ": 816,
      "г ": 817,
      "му ": 818,
      "хра": 819,
      "сти ": 820,
      "род": 821,
      "ствен": 822,
      "cep": 823,
      "tion ": 824,
      ", кто ": 825,
      ". Но ": 826,
      "частье ": 827,
      "бода ": 828,
      "пользова": 829,
      "ck": 830,
      "Лю": 831,
      "ха": 832,
      "сть": 833,
      "an ": 834,
      "ent": 835,
      "stat": 836,
      "lear": 837,
      "кон": 838,
      "лож": 839,
      "иться ": 840,
      "ешь ": 841,
      "грам": 842,
      "отнош": 843,
      "):\n    ": 844,
      "_data": 845,
      "be": 846,
      "for": 847,
      "wa": 848,
      "им": 849,
      "ой ": 850,
      "пр": 851,
      "ти ": 852,
      "ет с": 853,
      "ни ": 854,
      ". Д": 855,
      "ной ": 856,
      "ans": 857,
      "нее ": 858,
      "ком": 859,
      "t = ": 860,
      ":\n                ": 861,
      "лич": 862,
      "вид": 863,
      "ity ": 864,
      "без": 865,
      "итель": 866,
      "Вопрос: How do": 867,
      "Вопрос: What is ": 868,
      " in ": 869,
      "['": 870,
      "s.": 871,
      "глу": 872,
      "й.</s>": 873,
      "ла ": 874,
      "ско": 875,
      "tif": 876,
      "только ": 877,
      "ication": 878,
      "чем с": 879,
      "app": 880,
      "db.": 881,
      "auth": 882,
      "']": 883,
      "00": 884,
      "ll": 885,
      "py": 886,
      "task": 887,
      "вто": 888,
      "где ": 889,
      "оро": 890,
      "шь ": 891,
      "стро": 892,
      "ров": 893,
      "incl": 894,
      "ang": 895,
      "обы ": 896,
      "сле": 897,
      "ity": 898,
      "asy": 899,
      "produ": 900,
      "удро": 901,
      "Вопрос: В чем с": 902,
      "inclu": 903,
      " (": 904,
      "ce ": 905,
      "id ": 906,
      "ite": 907,
      "ke ": 908,
      "wid": 909,
      "би": 910,
      "бя": 911,
      "е.</s>": 912,
      ". В": 913,
      "?\nОтвет: В": 914,
      "?\nОтвет: О": 915,
      " са": 916,
      "мог": 917,
      "ству": 918,
      "инте": 919,
      ", а не ": 920,
      "шиб": 921,
      "друж": 922,
      "жизн": 923,
      "work?\nОтвет: ": 924,
      "чтобы ": 925,
      "()\n        ": 926,
      "== ": 927,
      "None": 928,
      "ail": 929,
      "ok": 930,
      "дер": 931,
      "доб": 932,
      "зыва": 933,
      "ска": 934,
      "ё ": 935,
      "on ": 936,
      "ator": 937,
      "м и ": 938,
      "доста": 939,
      "\n\n# ": 940,
      "tic ": 941,
      "The ": 942,
      "люди ": 943,
      ",\n        ": 944,
      "pre": 945,
      "par": 946,
      "sh": 947,
      "yp": 948,
      "их ": 949,
      "спе": 950,
      "ства": 951,
      ". П": 952,
      "\n        self.": 953,
      "s = ": 954,
      "?\nОтвет: И": 955,
      "?\nОтвет: К": 956,
      "чем ": 957,
      "вать ": 958,
      "ны ": 959,
      "throu": 960,
      "arr": 961,
      "руд": 962,
      "ach": 963,
      "мест": 964,
      "мене": 965,
      "без ": 966,
      ". На": 967,
      "add_": 968,
      "```": 969,
      "process": 970,
      "through": 971,
      "blo": 972,
      "ke": 973,
      "per": 974,
      "дне": 975,
      "ты": 976,
      "ется": 977,
      "програм": 978,
      "понима": 979,
      " со": 980,
      "дар": 981,
      "lection": 982,
      "тебя ": 983,
      "Вопрос: Как по": 984,
      "душ": 985,
      "переста": 986,
      "Вопрос: Ты не ": 987,
      ", который ": 988,
      "говор": 989,
      "collection": 990,
      "t.": 991,
      "t, ": 992,
      "wh": 993,
      "Те": 994,
      "бе ": 995,
      "ей": 996,
      "иде": 997,
      "пи": 998,
      "по ": 999,
      "тре": 1000,
      "чно": 1001,
      "шло": 1002,
      "ра ": 1003,
      "?\nОтвет: На": 1004,
      "то-то ": 1005,
      "принима": 1006,
      "логи": 1007,
      "овесть ": 1008,
      "буду": 1009,
      "Можно ": 1010,
      "system": 1011,
      "author": 1012,
      "asyn": 1013,
      "Вопрос: В чем смысл жизни": 1014,
      "date": 1015,
      "а, ": 1016,
      "ба ": 1017,
      "зво": 1018,
      "кла": 1019,
      "лы": 1020,
      "лов": 1021,
      "ять ": 1022,
      ". К": 1023,
      "пособ": 1024,
      "ита": 1025,
      "вос": 1026,
      "неш": 1027,
      "ерд": 1028,
      "лав": 1029,
      "себя ": 1030,
      ", как ": 1031,
      "tern": 1032,
      "book": 1033,
      "Вопрос: В чем смысл жизни, если ": 1034,
      "> ": 1035,
      "cal": 1036,
      "fil": 1037,
      "вз": 1038,
      "ден": 1039,
      "есть ": 1040,
      "йти ": 1041,
      "ке ": 1042,
      "счаст": 1043,
      "тся ": 1044,
      "цен": 1045,
      "стин": 1046,
      ". Б": 1047,
      "sen": 1048,
      "s (": 1049,
      "отов": 1050,
      "зада": 1051,
      "зави": 1052,
      "дел": 1053,
      "comm": 1054,
      "мир": 1055,
      "ack": 1056,
      "ical ": 1057,
      "дума": 1058,
      "?\nОтвет: Счастье ": 1059,
      "conn": 1060,
      "trans": 1061,
      "кус": 1062,
      "\n\nclass ": 1063,
      "ешь": 1064,
      "само": 1065,
      "text_": 1066,
      "through ": 1067,
      ")\n    ": 1068,
      "T ": 1069,
      "it ": 1070,
      "mat": 1071,
      "готов": 1072,
      "ков": 1073,
      "нет": 1074,
      "пер": 1075,
      "труд": 1076,
      "прост": 1077,
      "рес": 1078,
      "end": 1079,
      "ми, ": 1080,
      "ми.</s>": 1081,
      "self._": 1082,
      "дол": 1083,
      "приня": 1084,
      "межд": 1085,
      "get(": 1086,
      "боль": 1087,
      "други": 1088,
      "cursor": 1089,
      "щее ": 1090,
      "выбор": 1091,
      "current_": 1092,
      "elec": 1093,
      "learn": 1094,
      "Вопрос: How does ": 1095,
      "днев": 1096,
      "между ": 1097,
      ")\n": 1098,
      "?</s>": 1099,
      "cul": 1100,
      "ly": 1101,
      "pon": 1102,
      "so": 1103,
      "ss ": 1104,
      "ut": 1105,
      "вмест": 1106,
      "жить ": 1107,
      "ид": 1108,
      "и, ": 1109,
      "ие ": 1110,
      "ль ": 1111,
      "мя ": 1112,
      "ше ": 1113,
      "ющий ": 1114,
      ": str": 1115,
      "en ": 1116,
      "time ": 1117,
      "лан": 1118,
      "лаго": 1119,
      "action": 1120,
      "ть, ": 1121,
      "- это ": 1122,
      "menu": 1123,
      "mail": 1124,
      "делать ": 1125,
      "возра": 1126,
      "Люб": 1127,
      "дружба ": 1128,
      "ердц": 1129,
      "text_wid": 1130,
      "Ex": 1131,
      "de ": 1132,
      "ec": 1133,
      "gn": 1134,
      "iz": 1135,
      "ise ": 1136,
      "ай": 1137,
      "бы ": 1138,
      "дова": 1139,
      "кры": 1140,
      "к се": 1141,
      "м.</s>": 1142,
      "ответ": 1143,
      "х с": 1144,
      ". Про": 1145,
      "Вопрос: К": 1146,
      "?\nОтвет: М": 1147,
      "ота ": 1148,
      "чест": 1149,
      "en(": 1150,
      "мол": 1151,
      "кажд": 1152,
      "coun": 1153,
      "ция ": 1154,
      "созда": 1155,
      "like ": 1156,
      "(self):\n        '''": 1157,
      "ходит ": 1158,
      "хоро": 1159,
      ". Она ": 1160,
      "чески": 1161,
      "данных": 1162,
      "ступ": 1163,
      "path": 1164,
      "лавное ": 1165,
      "I ": 1166,
      "NA": 1167,
      "TP": 1168,
      "flo": 1169,
      "tab": 1170,
      "um": 1171,
      "} ": 1172,
      "Ра": 1173,
      "вле": 1174,
      "зы": 1175,
      "ление ": 1176,
      "она": 1177,
      "ори": 1178,
      "опы": 1179,
      "озда": 1180,
      "ошиб": 1181,
      "ет, ": 1182,
      "ниц": 1183,
      ". У": 1184,
      "\n        # ": 1185,
      "ред": 1186,
      "thon": 1187,
      "del": 1188,
      "слов": 1189,
      "вить ": 1190,
      "users": 1191,
      "ция": 1192,
      "ции ": 1193,
      "und": 1194,
      "?\nОтвет: Да, ": 1195,
      "create_": 1196,
      "перестать ": 1197,
      "ponse": 1198,
      ".0": 1199,
      ".\nОтвет: ": 1200,
      "ER": 1201,
      "\\\\": 1202,
      "iv": 1203,
      "sion": 1204,
      "ure": 1205,
      "we": 1206,
      "ал": 1207,
      "благо": 1208,
      "год": 1209,
      "мот": 1210,
      "она ": 1211,
      "пис": 1212,
      "сов": 1213,
      "шь": 1214,
      "ющая ": 1215,
      "стре": 1216,
      "рожда": 1217,
      "ine ": 1218,
      "rea": 1219,
      "reco": 1220,
      "tit": 1221,
      "нельз": 1222,
      "ным ": 1223,
      "that ": 1224,
      "кар": 1225,
      "то, что ": 1226,
      "станов": 1227,
      "лек": 1228,
      "?\nОтвет: Стра": 1229,
      "ки, ": 1230,
      "ter ": 1231,
      "')\n    ": 1232,
      "всегда ": 1233,
      "возмож": 1234,
      "spe": 1235,
      "': '": 1236,
      "?\nОтвет: Настоя": 1237,
      "command": 1238,
      "\\\\n": 1239,
      "' ": 1240,
      "No": 1241,
      "User": 1242,
      "by ": 1243,
      "email": 1244,
      "grou": 1245,
      "ha": 1246,
      "od": 1247,
      "od ": 1248,
      "y_": 1249,
      "буд": 1250,
      "ды": 1251,
      "до ": 1252,
      "мет": 1253,
      "мни": 1254,
      "ой": 1255,
      "свет": 1256,
      "сит ": 1257,
      "с соб": 1258,
      "чно ": 1259,
      "ника": 1260,
      "ние, ": 1261,
      ". Е": 1262,
      ". Т": 1263,
      "радо": 1264,
      "init": 1265,
      "отлич": 1266,
      "вобода ": 1267,
      "даже ": 1268,
      "— в ": 1269,
      "изи": 1270,
      "измени": 1271,
      "казыва": 1272,
      "les ": 1273,
      "тем": 1274,
      "одино": 1275,
      "тив": 1276,
      "ться": 1277,
      "Вопрос: Что значит ": 1278,
      "няя ": 1279,
      "s, and ": 1280,
      "__init": 1281,
      "system ": 1282,
      "учиться ": 1283,
      "status": 1284,
      "form": 1285,
      "удрость ": 1286,
      "learning ": 1287,
      "нельзя ": 1288,
      "group": 1289,
      "__init__": 1290,
      "\nfrom ": 1291,
      "(user": 1292,
      ")\n    \n    ": 1293,
      "+ ": 1294,
      ",\n            ": 1295,
      "IN": 1296,
      "ain": 1297,
      "bar": 1298,
      "ep": 1299,
      "ist": 1300,
      "le ": 1301,
      "len(": 1302,
      "ror": 1303,
      "уда ": 1304,
      "фи": 1305,
      "ющи": 1306,
      "ном ": 1307,
      "ses ": 1308,
      "?\nОтвет: В ": 1309,
      "наход": 1310,
      "честв": 1311,
      "в то": 1312,
      "ение, ": 1313,
      "server": 1314,
      "act": 1315,
      "себя": 1316,
      "?\nОтвет: Смысл ": 1317,
      "вед": 1318,
      ") as ": 1319,
      "искус": 1320,
      "луча": 1321,
      "друг ": 1322,
      ", но не ": 1323,
      "ешь, ": 1324,
      "time.": 1325,
      "жать ": 1326,
      "цес": 1327,
      "text": 1328,
      "ются ": 1329,
      "настояще": 1330,
      "пользовате": 1331,
      "tification": 1332,
      "angu": 1333,
      "item": 1334,
      ",\n        '": 1335,
      "программи": 1336,
      "зволя": 1337,
      "приняти": 1338,
      "\nimport ": 1339,
      " и ": 1340,
      "!</s>": 1341,
      "-> ": 1342,
      "HT": 1343,
      "_name": 1344,
      "ast": 1345,
      "ed": 1346,
      "ft": 1347,
      "ob": 1348,
      "twork": 1349,
      "val": 1350,
      "}')\n        ": 1351,
      "А ": 1352,
      "внеш": 1353,
      "гор": 1354,
      "пла": 1355,
      "цени": 1356,
      "яза": 1357,
      ". М": 1358,
      "проща": 1359,
      "рав": 1360,
      "ново": 1361,
      "?\nОтвет: П": 1362,
      "?\nОтвет: The ": 1363,
      "?\nОтвет: Люб": 1364,
      "ака": 1365,
      "момен": 1366,
      "ar ": 1367,
      "Вопрос: Как на": 1368,
      "?\nОтвет: Совесть ": 1369,
      ") -> ": 1370,
      "conne": 1371,
      "состоя": 1372,
      "можем ": 1373,
      "часто ": 1374,
      "(self):\n        ": 1375,
      "main": 1376,
      "— это не ": 1377,
      "перед ": 1378,
      "excep": 1379,
      "ght": 1380,
      "not ": 1381,
      "жива": 1382,
      "краси": 1383,
      "действи": 1384,
      "Вопрос: What is the ": 1385,
      "интерес": 1386,
      "будуще": 1387,
      "electr": 1388,
      "Вопрос: Что значит быть ": 1389,
      "HTTP": 1390,
      "'s ": 1391,
      "Con": 1392,
      "Er": 1393,
      "Tr": 1394,
      "bu": 1395,
      "bin": 1396,
      "c ": 1397,
      "gy": 1398,
      "l ": 1399,
      "langu": 1400,
      "pu": 1401,
      "sa": 1402,
      "s: ": 1403,
      "tk": 1404,
      "Главное ": 1405,
      "и.</s>": 1406,
      "ку ": 1407,
      "ло ": 1408,
      "рмо": 1409,
      "тро": 1410,
      "уве": 1411,
      "фор": 1412,
      "шен": 1413,
      ", в ": 1414,
      ". Ч": 1415,
      "ate ": 1416,
      "ть себя ": 1417,
      "наш": 1418,
      "ener": 1419,
      "воли ": 1420,
      "ным": 1421,
      "— не ": 1422,
      "mess": 1423,
      "ces ": 1424,
      "cell": 1425,
      "ть.</s>": 1426,
      "прилож": 1427,
      "?\nОтвет: Свобода ": 1428,
      "Вопрос: Что-то ": 1429,
      "try": 1430,
      "может ": 1431,
      "ment ": 1432,
      "друго": 1433,
      "docu": 1434,
      "страх ": 1435,
      "пред": 1436,
      "правл": 1437,
      "result": 1438,
      "лень": 1439,
      "age ": 1440,
      ",\n                    ": 1441,
      "которо": 1442,
      "Вопрос: В чем смысл жизни, если все ": 1443,
      "счастли": 1444,
      "программирова": 1445,
      "message": 1446,
      "10": 1447,
      "==": 1448,
      "RE": 1449,
      "are ": 1450,
      "bal": 1451,
      "cr": 1452,
      "ev": 1453,
      "ecu": 1454,
      "ho": 1455,
      "min": 1456,
      "mul": 1457,
      "op": 1458,
      "ran": 1459,
      "ys": 1460,
      "you": 1461,
      "Созда": 1462,
      "авто": 1463,
      "ги ": 1464,
      "дет": 1465,
      "довер": 1466,
      "ей ": 1467,
      "жен": 1468,
      "ри ": 1469,
      "сер": 1470,
      "т, ": 1471,
      "тов": 1472,
      "тот ": 1473,
      "ую ": 1474,
      "фай": 1475,
      ", на": 1476,
      "стем": 1477,
      "ний ": 1478,
      "реш": 1479,
      "ак с": 1480,
      "ными ": 1481,
      "the": 1482,
      "иза": 1483,
      "кор": 1484,
      "roo": 1485,
      "ari": 1486,
      "слу": 1487,
      "ставля": 1488,
      "мые ": 1489,
      "def __init__": 1490,
      "сохра": 1491,
      "unt": 1492,
      "нять ": 1493,
      "пас": 1494,
      "ществу": 1495,
      "любить ": 1496,
      "network": 1497,
      "ous ": 1498,
      "теря": 1499,
      "Мож": 1500,
      "сут": 1501,
      "content": 1502,
      "include ": 1503,
      "id = ": 1504,
      "могу ": 1505,
      "async ": 1506,
      "NA ": 1507,
      "title": 1508,
      "отличить ": 1509,
      "Error": 1510,
      "* ": 1511,
      "_menu": 1512,
      "amo": 1513,
      "fu": 1514,
      "fail": 1515,
      "typ": 1516,
      "га ": 1517,
      "нная ": 1518,
      "ол": 1519,
      "сла": 1520,
      "ут": 1521,
      "фу": 1522,
      "стов": 1523,
      ". Как ": 1524,
      "inter": 1525,
      "s to ": 1526,
      "реб": 1527,
      "помни": 1528,
      " сво": 1529,
      "чество ": 1530,
      "— значит ": 1531,
      "обе": 1532,
      "обы": 1533,
      "acti": 1534,
      "Вопрос: Как перестать ": 1535,
      "Вопрос: Как отличить ": 1536,
      "'''\n    ": 1537,
      "user_": 1538,
      "username": 1539,
      "был ": 1540,
      "разу": 1541,
      "меня": 1542,
      "свобода ": 1543,
      "м, чтобы ": 1544,
      "que": 1545,
      "compu": 1546,
      ", которые ": 1547,
      "каждо": 1548,
      "умение ": 1549,
      "приз": 1550,
      "жизнь ": 1551,
      "достато": 1552,
      "ланс ": 1553,
      "каждый ": 1554,
      "float": 1555,
      "speci": 1556,
      "Po": 1557,
      "awa": 1558,
      "cri": 1559,
      "fo": 1560,
      "ffe": 1561,
      "gy ": 1562,
      "sk": 1563,
      "s) ": 1564,
      "x ": 1565,
      "Ба": 1566,
      "бли": 1567,
      "вопрос": 1568,
      "гру": 1569,
      "ее ": 1570,
      "ез ": 1571,
      "им ": 1572,
      "м, а ": 1573,
      "тот": 1574,
      "уро": 1575,
      "ут ": 1576,
      "успе": 1577,
      "х, ": 1578,
      "хно": 1579,
      "щение ": 1580,
      ", b": 1581,
      "s and ": 1582,
      "посл": 1583,
      " си": 1584,
      "ent ": 1585,
      "вай ": 1586,
      "обяза": 1587,
      "ком ": 1588,
      "url": 1589,
      "ural ": 1590,
      "ict": 1591,
      "интер": 1592,
      "созна": 1593,
      "боя": 1594,
      "name ": 1595,
      "doc": 1596,
      ", под": 1597,
      "execu": 1598,
      ". Это не ": 1599,
      "ght ": 1600,
      "worker": 1601,
      "')\n": 1602,
      "now": 1603,
      "raise ": 1604,
      "stru": 1605,
      "using ": 1606,
      "времене": 1607,
      "время ": 1608,
      "красота ": 1609,
      "основ": 1610,
      "отношения": 1611,
      "сколько ": 1612,
      "python": 1613,
      "include": 1614,
      "добро": 1615,
      "```python": 1616,
      "blood ": 1617,
      "стинная ": 1618,
      "culator": 1619,
      "text_widge": 1620,
      "?\nОтвет: Страх ": 1621,
      "в том, чтобы ": 1622,
      "сутстви": 1623,
      "async def ": 1624,
      "await ": 1625,
      "хнологи": 1626,
      "). ": 1627,
      ")\n\n": 1628,
      "=self.": 1629,
      "AP": 1630,
      "Dat": 1631,
      "E ": 1632,
      "[]": 1633,
      "_file": 1634,
      "io": 1635,
      "la": 1636,
      "ner": 1637,
      "ана": 1638,
      "вя": 1639,
      "во ": 1640,
      "вы ": 1641,
      "втра": 1642,
      "ере": 1643,
      "жени": 1644,
      "кни": 1645,
      "клю": 1646,
      "лет": 1647,
      "мне": 1648,
      "нет ": 1649,
      "ск": 1650,
      "смот": 1651,
      "та ": 1652,
      "хи": 1653,
      "ь.</s>": 1654,
      "ят ": 1655,
      ", за": 1656,
      ". Л": 1657,
      "проб": 1658,
      "просто": 1659,
      "ран": 1660,
      "\n        return ": 1661,
      "ath": 1662,
      "по-": 1663,
      "отсутстви": 1664,
      "чения ": 1665,
      "ance ": 1666,
      "stance": 1667,
      "в по": 1668,
      "изве": 1669,
      "обработ": 1670,
      "обид": 1671,
      "кая": 1672,
      "коне": 1673,
      "ing, ": 1674,
      "ствова": 1675,
      "малень": 1676,
      "стано": 1677,
      "self.get_": 1678,
      "досто": 1679,
      "acce": 1680,
      "орга": 1681,
      "ть, но ": 1682,
      "вые ": 1683,
      "души": 1684,
      "кие ": 1685,
      "иск": 1686,
      "использ": 1687,
      "знаешь": 1688,
      "\n\n```python": 1689,
      "abase": 1690,
      "mag": 1691,
      "свой ": 1692,
      "свобод": 1693,
      "exp": 1694,
      "vir": 1695,
      "ния, ": 1696,
      "gene": 1697,
      "жеднев": 1698,
      "поддер": 1699,
      "Запу": 1700,
      "иногда ": 1701,
      "видеть ": 1702,
      "следова": 1703,
      "думаешь, ": 1704,
      "вместе ": 1705,
      "изменить ": 1706,
      "tk.": 1707,
      "document": 1708,
      "you ": 1709,
      "amount": 1710,
      "failure": 1711,
      "после ": 1712,
      "использу": 1713,
      "\nclass ": 1714,
      "',\n        '": 1715,
      "AR": 1716,
      "ES": 1717,
      "Py": 1718,
      "Pay": 1719,
      "QL": 1720,
      "SQL": 1721,
      "bl": 1722,
      "cy": 1723,
      "car": 1724,
      "ds ": 1725,
      "em": 1726,
      "ed ": 1727,
      "fun": 1728,
      "ial ": 1729,
      "ken": 1730,
      "lab": 1731,
      "mar": 1732,
      "ез": 1733,
      "ещ": 1734,
      "кру": 1735,
      "кти": 1736,
      "како": 1737,
      "ллек": 1738,
      "мя": 1739,
      "муд": 1740,
      "они ": 1741,
      "так": 1742,
      "тыва": 1743,
      "уже ": 1744,
      "х.</s>": 1745,
      "ющее ": 1746,
      "ят": 1747,
      ", с": 1748,
      "ст ": 1749,
      "стру": 1750,
      "стить ": 1751,
      "роть ": 1752,
      "нии": 1753,
      "них ": 1754,
      ". Ра": 1755,
      "провер": 1756,
      "проек": 1757,
      "прошло": 1758,
      "но, ": 1759,
      "secur": 1760,
      "?\nОтвет: Н": 1761,
      "реаль": 1762,
      "e = ": 1763,
      "org": 1764,
      "него ": 1765,
      "ерность ": 1766,
      "обра": 1767,
      "каза": 1768,
      "ет ли ": 1769,
      ":\n        '''": 1770,
      "code": 1771,
      "ть, что ": 1772,
      "Вопрос: Как думаешь, ": 1773,
      "вым": 1774,
      "выпол": 1775,
      "себе": 1776,
      "меч": 1777,
      "iden": 1778,
      "ates ": 1779,
      "бороть ": 1780,
      "нуж": 1781,
      "):\n            ": 1782,
      "ment(": 1783,
      "prote": 1784,
      "менно ": 1785,
      "chan": 1786,
      "char": 1787,
      "response": 1788,
      "model": 1789,
      "ми и ": 1790,
      ", почему ": 1791,
      "гармо": 1792,
      "прави": 1793,
      "vide": 1794,
      "ssion": 1795,
      "out ": 1796,
      "here ": 1797,
      "времени": 1798,
      "пыта": 1799,
      "result = ": 1800,
      "данных ": 1801,
      "created_": 1802,
      "ture": 1803,
      "phys": 1804,
      "):\n    '''": 1805,
      "== '": 1806,
      "Вопрос: Как побороть ": 1807,
      "Вопрос: Ты не знаешь": 1808,
      "идеаль": 1809,
      "просто ": 1810,
      "возраст": 1811,
      "Excep": 1812,
      "Вопрос: Куда ": 1813,
      "хороши": 1814,
      "благодар": 1815,
      "тем, кто ": 1816,
      "?\nОтвет: Смысл в том, чтобы ": 1817,
      "True": 1818,
      "уверен": 1819,
      "Вопрос: Что-то я ": 1820,
      "Вопрос: В чем смысл жизни, если все так ": 1821,
      "def __init__(self, ": 1822,
      "ребен": 1823,
      "призна": 1824,
      "тот, кто ": 1825,
      "обязатель": 1826,
      "execute": 1827,
      "извест": 1828,
      "Вопрос: Ты не знаешь, почему ": 1829,
      " О": 1830,
      "), and ": 1831,
      ".add_": 1832,
      ".execute": 1833,
      "An": 1834,
      "DNA ": 1835,
      "EN": 1836,
      "Ke": 1837,
      "ain ": 1838,
      "ear": 1839,
      "f-": 1840,
      "ff": 1841,
      "fin": 1842,
      "gr": 1843,
      "ip": 1844,
      "ive ": 1845,
      "lu": 1846,
      "mb": 1847,
      "ms ": 1848,
      "o ": 1849,
      "our": 1850,
      "sle": 1851,
      "tro": 1852,
      "vel": 1853,
      "vari": 1854,
      "x_": 1855,
      "Что ": 1856,
      "ира": 1857,
      "мся ": 1858,
      "он": 1859,
      "оне": 1860,
      "пти": 1861,
      "совер": 1862,
      "чь ": 1863,
      "ъек": 1864,
      "ья": 1865,
      "эмо": 1866,
      ", '": 1867,
      "сты": 1868,
      "е и ": 1869,
      "ний": 1870,
      "нию": 1871,
      ". I": 1872,
      ". Можно ": 1873,
      "s from ": 1874,
      "Вопрос: В": 1875,
      "Вопрос: С": 1876,
      "reg": 1877,
      "под ": 1878,
      "показыва": 1879,
      "чер": 1880,
      "ory": 1881,
      "ити": 1882,
      "st ": 1883,
      "sto": 1884,
      "мога": 1885,
      "дать ": 1886,
      "thes": 1887,
      "того ": 1888,
      "ностя": 1889,
      "ted ": 1890,
      "стары": 1891,
      "ital ": 1892,
      "лей": 1893,
      "asser": 1894,
      "цию": 1895,
      "token": 1896,
      "Вопрос: Что важ": 1897,
      "нужно ": 1898,
      "ch ": 1899,
      "', command": 1900,
      "пар": 1901,
      "ный выбор": 1902,
      "ction ": 1903,
      "fiel": 1904,
      "ения.</s>": 1905,
      "syn": 1906,
      "'''\n        with ": 1907,
      "posts": 1908,
      "fet": 1909,
      "настоящи": 1910,
      "оставить ": 1911,
      "pattern": 1912,
      "твор": 1913,
      "print('\\\\n": 1914,
      "внутреннее ": 1915,
      "ck ": 1916,
      "отношени": 1917,
      "без с": 1918,
      "peri": 1919,
      "пособ ": 1920,
      "мир ": 1921,
      "?\nОтвет: Счастье в ": 1922,
      "end(": 1923,
      "ердца": 1924,
      "gni": 1925,
      "молча": 1926,
      "писа": 1927,
      "возможность ": 1928,
      "с собой ": 1929,
      ". Если ": 1930,
      "?\nОтвет: Совесть — ": 1931,
      "language ": 1932,
      "которой ": 1933,
      "multi": 1934,
      "втра ": 1935,
      "достоин": 1936,
      "искрен": 1937,
      "', command=self.": 1938,
      " для ": 1939,
      "()\n            ": 1940,
      ").": 1941,
      ".get(": 1942,
      "List": 1943,
      "Op": 1944,
      "Pro": 1945,
      "_sor": 1946,
      "_path": 1947,
      "base": 1948,
      "ct": 1949,
      "ful": 1950,
      "fra": 1951,
      "hi": 1952,
      "hel": 1953,
      "hum": 1954,
      "imm": 1955,
      "ker": 1956,
      "nat": 1957,
      "sq": 1958,
      "wat": 1959,
      "war": 1960,
      "Я ": 1961,
      "бер": 1962,
      "емо": 1963,
      "ежеднев": 1964,
      "йча": 1965,
      "л.</s>": 1966,
      "мудро": 1967,
      "он ": 1968,
      "рет": 1969,
      "син": 1970,
      "учи": 1971,
      "услов": 1972,
      "цвет": 1973,
      "ых ": 1974,
      "ью": 1975,
      "я, ": 1976,
      "яется ": 1977,
      "— с": 1978,
      ", 1": 1979,
      ", не ": 1980,
      ", когда ": 1981,
      ", где ": 1982,
      ": '": 1983,
      "низ": 1984,
      "ник": 1985,
      "нии ": 1986,
      "нова": 1987,
      "ного": 1988,
      "ночество ": 1989,
      "inform": 1990,
      "real": 1991,
      "?\nОтвет: Это ": 1992,
      "?\nОтвет: Ба": 1993,
      "пото": 1994,
      "нача": 1995,
      "ant": 1996,
      "вод": 1997,
      "ней ": 1998,
      "недоста": 1999,
      "неизвест": 2000,
      "вает ": 2001,
      "м возраст": 2002,
      "дает ": 2003,
      "— когда ": 2004,
      "извле": 2005,
      "кая ": 2006,
      "тебе ": 2007,
      "ary ": 2008,
      "тор": 2009,
      "того": 2010,
      "один": 2011,
      "слы": 2012,
      "часть ": 2013,
      "тиши": 2014,
      "приход": 2015,
      "ite ": 2016,
      "ass": 2017,
      "user_id": 2018,
      "ции": 2019,
      "ation. ": 2020,
      "кий ": 2021,
      "tra": 2022,
      "mple": 2023,
      "ategy": 2024,
      "испыта": 2025,
      "list": 2026,
      "шие ": 2027,
      "):\n        self.": 2028,
      "ters ": 2029,
      "кур": 2030,
      "new": 2031,
      ", пото": 2032,
      "свои ": 2033,
      "vision": 2034,
      "шать ": 2035,
      "out": 2036,
      "диночество ": 2037,
      "Вопрос: Почему в ": 2038,
      "cio": 2039,
      ", кото": 2040,
      "ver ": 2041,
      "bod": 2042,
      "правля": 2043,
      "gener": 2044,
      "ческо": 2045,
      "щая любовь ": 2046,
      "щий друг ": 2047,
      "test.": 2048,
      "test_": 2049,
      "котор": 2050,
      ". И ": 2051,
      "родите": 2052,
      "глуб": 2053,
      "?\nОтвет: Одиночество ": 2054,
      ". Настоя": 2055,
      "system?\nОтвет: The ": 2056,
      "asyncio": 2057,
      "день": 2058,
      ": str\n    ": 2059,
      "к себе": 2060,
      "ориен": 2061,
      "рождается ": 2062,
      "Notification": 2063,
      "status_": 2064,
      "?\nОтвет: Любовь ": 2065,
      "стема ": 2066,
      "смотр": 2067,
      "Вопрос: Как побороть страх ": 2068,
      "обязательно ": 2069,
      "fetch": 2070,
      "недостат": 2071,
      "м возрасте ": 2072,
      "'</s>": 2073,
      "(lab": 2074,
      ")\n    \n    def ": 2075,
      "AL": 2076,
      "NO": 2077,
      "Res": 2078,
      "TE": 2079,
      "Y ": 2080,
      "cle": 2081,
      "can ": 2082,
      "gra": 2083,
      "ies ": 2084,
      "mal": 2085,
      "mach": 2086,
      "ox": 2087,
      "p ": 2088,
      "pe": 2089,
      "s(": 2090,
      "son": 2091,
      "ting ": 2092,
      "Где ": 2093,
      "Доб": 2094,
      "Па": 2095,
      "гу": 2096,
      "е: ": 2097,
      "есть": 2098,
      "зы ": 2099,
      "имо": 2100,
      "лод": 2101,
      "мне ": 2102,
      "нц": 2103,
      "нь ": 2104,
      "оз": 2105,
      "сс": 2106,
      "смер": 2107,
      "уни": 2108,
      "физи": 2109,
      "хро": 2110,
      "ю с": 2111,
      ", и ": 2112,
      "ете ": 2113,
      "рая ": 2114,
      "носит ": 2115,
      "\n        \n        ": 2116,
      "inte": 2117,
      "ating ": 2118,
      "Вопрос: За": 2119,
      "Вопрос: Можно ": 2120,
      "Вопрос: Где ": 2121,
      "?\nОтвет: А": 2122,
      "ремен": 2123,
      "пода": 2124,
      "полу": 2125,
      "позволя": 2126,
      "над ": 2127,
      "чего ": 2128,
      "ным, ": 2129,
      "образ": 2130,
      "ками": 2131,
      "level": 2132,
      "тек": 2133,
      "завтра ": 2134,
      "руп": 2135,
      ":\n        return ": 2136,
      "meth": 2137,
      "ted": 2138,
      "tebook": 2139,
      "ства ": 2140,
      "self.current_": 2141,
      "дости": 2142,
      "tional": 2143,
      "тия": 2144,
      "приходит ": 2145,
      "мело": 2146,
      "лей ": 2147,
      "ation, ": 2148,
      "?\nОтвет: Смысл жизни": 2149,
      "голо": 2150,
      "мента": 2151,
      "dom": 2152,
      "pool": 2153,
      "return f'": 2154,
      "\n                    ": 2155,
      "ить.</s>": 2156,
      "ape": 2157,
      "el='": 2158,
      "ния и ": 2159,
      "рование": 2160,
      "')\n    \n    def ": 2161,
      "нных ": 2162,
      "преде": 2163,
      "if not ": 2164,
      "Вопрос: Почему люди ": 2165,
      "делает ": 2166,
      "comple": 2167,
      "ния.</s>": 2168,
      "человека ": 2169,
      "ности и ": 2170,
      "Вопрос: В како": 2171,
      "кажется": 2172,
      "лучше": 2173,
      "?\nОтвет: Процес": 2174,
      "?\nОтвет: Прощение ": 2175,
      "чувствова": 2176,
      "му что ": 2177,
      "bet": 2178,
      "иметь ": 2179,
      "append(": 2180,
      "db.add_": 2181,
      "строй": 2182,
      "?\nОтвет: Верность ": 2183,
      "могут ": 2184,
      "интеллек": 2185,
      "ypto": 2186,
      ". При": 2187,
      "?\nОтвет: Истинная ": 2188,
      "arr[": 2189,
      "души ": 2190,
      "треб": 2191,
      "шлое — ": 2192,
      "клад": 2193,
      "пособность ": 2194,
      "взя": 2195,
      "задач": 2196,
      "годня": 2197,
      "recogni": 2198,
      "?\nОтвет: Настоящая любовь ": 2199,
      "метод": 2200,
      "observer": 2201,
      "}')\n            ": 2202,
      "ценить ": 2203,
      "акая ": 2204,
      "Вопрос: Как найти ": 2205,
      "можем выб": 2206,
      "except ": 2207,
      "energy ": 2208,
      "жен ": 2209,
      "Error('": 2210,
      "_menu.add_": 2211,
      "достаточно ": 2212,
      "ланс между ": 2213,
      "Post": 2214,
      "API": 2215,
      "пробле": 2216,
      "magne": 2217,
      ".execute(": 2218,
      "синхро": 2219,
      "asyncio.": 2220,
      "(label='": 2221,
      "Доба": 2222,
      "Вопрос: Зачем ": 2223,
      "Вопрос: Можно ли ": 2224,
      "?\nОтвет: Смысл жизни ": 2225,
      "Вопрос: В каком возрасте ": 2226,
      "?\nОтвет: Процесс ": 2227,
      " на ": 2228,
      " + ": 2229,
      "'t ": 2230,
      "-1": 2231,
      "De": 2232,
      "Re": 2233,
      "_in": 2234,
      "a.": 2235,
      "ame": 2236,
      "bio": 2237,
      "den": 2238,
      "dur": 2239,
      "dict": 2240,
      "jec": 2241,
      "ler": 2242,
      "ow": 2243,
      "os.": 2244,
      "pack": 2245,
      "scri": 2246,
      "ton": 2247,
      "up": 2248,
      "ure ": 2249,
      "vol": 2250,
      "y.</s>": 2251,
      "Вы": 2252,
      "Есть ": 2253,
      "ву": 2254,
      "вра": 2255,
      "вче": 2256,
      "встре": 2257,
      "гла": 2258,
      "дов": 2259,
      "еди": 2260,
      "зде": 2261,
      "ина": 2262,
      "исто": 2263,
      "игра": 2264,
      "кро": 2265,
      "много ": 2266,
      "нк": 2267,
      "нстра": 2268,
      "пен": 2269,
      "пить ": 2270,
      "ттер": 2271,
      "управл": 2272,
      "чё": 2273,
      "что": 2274,
      "что-то ": 2275,
      "чита": 2276,
      "щи ": 2277,
      "ы.</s>": 2278,
      "ыть ": 2279,
      "я.</s>": 2280,
      "язы": 2281,
      "ёт ": 2282,
      ", на ": 2283,
      "сть, ": 2284,
      ". M": 2285,
      "и быть ": 2286,
      "прош": 2287,
      "пробу": 2288,
      "процес": 2289,
      "s like ": 2290,
      "ative ": 2291,
      "реак": 2292,
      "ремя ": 2293,
      "позна": 2294,
      "потреб": 2295,
      "ото": 2296,
      "откры": 2297,
      "tial": 2298,
      "tive ": 2299,
      "star": 2300,
      "не могу ": 2301,
      "измене": 2302,
      "коф": 2303,
      "коро": 2304,
      "запрос": 2305,
      "дел ": 2306,
      "мар": 2307,
      "ма, ": 2308,
      "мире": 2309,
      ")\n        self.": 2310,
      "self.collection": 2311,
      "доступ": 2312,
      "tion, ": 2313,
      "тиров": 2314,
      "ортиров": 2315,
      "вых ": 2316,
      "мед": 2317,
      "меж": 2318,
      "лекар": 2319,
      "user_data": 2320,
      "цио": 2321,
      "?\nОтвет: Смер": 2322,
      "веч": 2323,
      "вели": 2324,
      "trac": 2325,
      "мый ": 2326,
      "ill": 2327,
      "\n    \n    # ": 2328,
      "может с": 2329,
      "ную ": 2330,
      "light ": 2331,
      "нять, что ": 2332,
      "стоятель": 2333,
      "меня ": 2334,
      "abil": 2335,
      "able ": 2336,
      ", но и ": 2337,
      "max_": 2338,
      "щая": 2339,
      ", позволя": 2340,
      "чина": 2341,
      "иться": 2342,
      "стран": 2343,
      "симо": 2344,
      "практи": 2345,
      "vice": 2346,
      "шая ": 2347,
      "():\n    ": 2348,
      "raw": 2349,
      "radi": 2350,
      "')\n        return ": 2351,
      ", которо": 2352,
      "('<": 2353,
      ":\n            cur": 2354,
      "ности.</s>": 2355,
      "ность.</s>": 2356,
      "частье — ": 2357,
      ": {e": 2358,
      "ation (": 2359,
      "музы": 2360,
      "right": 2361,
      "жела": 2362,
      "?\nОтвет: Довер": 2363,
      "ждая ": 2364,
      "ство, ": 2365,
      "твои ": 2366,
      "лучш": 2367,
      "ir ": 2368,
      "... ": 2369,
      "степен": 2370,
      "любовь от ": 2371,
      "Люди": 2372,
      ":\n                    ": 2373,
      "Вопрос: How do ": 2374,
      "produc": 2375,
      "?\nОтвет: Время ": 2376,
      "presen": 2377,
      "?\nОтвет: Ис": 2378,
      "?\nОтвет: Коне": 2379,
      "Вопрос: Как понять, что ": 2380,
      "требу": 2381,
      "принимать ": 2382,
      "author_id": 2383,
      ". Без ": 2384,
      "conn.": 2385,
      "самое ": 2386,
      "больш": 2387,
      "current_text_wid": 2388,
      "time = ": 2389,
      "к себе ": 2390,
      "?\nОтвет: Мудрость ": 2391,
      "create_tab": 2392,
      "рождаются ": 2393,
      "становится ": 2394,
      "ющие ": 2395,
      "time.time": 2396,
      "edit": 2397,
      "valid": 2398,
      "горит": 2399,
      "connection": 2400,
      "publ": 2401,
      "save": 2402,
      "?\nОтвет: Свобода воли ": 2403,
      "balance": 2404,
      "сохране": 2405,
      "обеспе": 2406,
      "каждом ": 2407,
      "бояться ": 2408,
      ", поддер": 2409,
      "text_widget.": 2410,
      ". Луч": 2411,
      "отсутствие ": 2412,
      "станови": 2413,
      "genetic ": 2414,
      "вместе с ": 2415,
      "function": 2416,
      "ещё ": 2417,
      "organ": 2418,
      "change": 2419,
      "эмоци": 2420,
      "synthes": 2421,
      "based ": 2422,
      "high": 2423,
      "immun": 2424,
      "тишине ": 2425,
      "Response": 2426,
      "method": 2427,
      "?\nОтвет: Смерть ": 2428,
      ", которое ": 2429,
      "current_text_widget(": 2430,
      " == '": 2431,
      "(1": 2432,
      ",\n    ": 2433,
      ".2": 2434,
      ".5": 2435,
      "=== ": 2436,
      "Co": 2437,
      "Di": 2438,
      "Mo": 2439,
      "ON": 2440,
      "OP": 2441,
      "S ": 2442,
      "SE": 2443,
      "Str": 2444,
      "Te": 2445,
      "Val": 2446,
      "]:\n        '''": 2447,
      "_y": 2448,
      "_id = ": 2449,
      "ase ": 2450,
      "b ": 2451,
      "be ": 2452,
      "cen": 2453,
      "ding ": 2454,
      "fac": 2455,
      "gor": 2456,
      "gital ": 2457,
      "ht": 2458,
      "i ": 2459,
      "ise": 2460,
      "ial": 2461,
      "ice": 2462,
      "mer": 2463,
      "mit": 2464,
      "mic ": 2465,
      "oth": 2466,
      "of-": 2467,
      "pa": 2468,
      "pad": 2469,
      "pass": 2470,
      "s=": 2471,
      "sol": 2472,
      "s), ": 2473,
      "ta": 2474,
      "tp": 2475,
      "tal": 2476,
      "ttk.": 2477,
      "use ": 2478,
      "ving ": 2479,
      "ves ": 2480,
      "where ": 2481,
      "{self.": 2482,
      "От": 2483,
      "При": 2484,
      "вза": 2485,
      "внима": 2486,
      "гля": 2487,
      "её ": 2488,
      "здо": 2489,
      "кра": 2490,
      "как": 2491,
      "л, ": 2492,
      "лиз": 2493,
      "лся ": 2494,
      "нный ": 2495,
      "нное ": 2496,
      "ож": 2497,
      "оче": 2498,
      "огда ": 2499,
      "опас": 2500,
      "пли": 2501,
      "рф": 2502,
      "сделать ": 2503,
      "те ": 2504,
      "уществу": 2505,
      "фф": 2506,
      "шка": 2507,
      "шь, ": 2508,
      "ым ": 2509,
      "ья ": 2510,
      "эти": 2511,
      "этот ": 2512,
      "эфф": 2513,
      "яс": 2514,
      "яги": 2515,
      "  # ": 2516,
      "сты ": 2517,
      "ром": 2518,
      "о времене": 2519,
      "о сколько ": 2520,
      ". Люди": 2521,
      "\n        '": 2522,
      "s in ": 2523,
      "ato": 2524,
      "att": 2525,
      "Вопрос: Мож": 2526,
      "?\nОтвет: У": 2527,
      "поступ": 2528,
      "направл": 2529,
      "овь": 2530,
      "anti": 2531,
      "anal": 2532,
      "й и ": 2533,
      "ory ": 2534,
      "envir": 2535,
      "несчаст": 2536,
      "некотор": 2537,
      "вам ": 2538,
      "мой ": 2539,
      "d by ": 2540,
      "общ": 2541,
      "объек": 2542,
      "ка: ": 2543,
      "left": 2544,
      "технологи": 2545,
      "demo": 2546,
      "ла.</s>": 2547,
      "том": 2548,
      "забы": 2549,
      "заставля": 2550,
      "деж": 2551,
      "чать ": 2552,
      "temp": 2553,
      "ствитель": 2554,
      "coffe": 2555,
      "лить ": 2556,
      "мира": 2557,
      "сторо": 2558,
      "стоит ": 2559,
      ")\n        \n        # ": 2560,
      "доку": 2561,
      "видел": 2562,
      "Вопрос: Как вам ": 2563,
      "приро": 2564,
      "пример": 2565,
      "and re": 2566,
      "user ": 2567,
      "ation.</s>": 2568,
      "го.</s>": 2569,
      "года": 2570,
      "tool": 2571,
      ", а с": 2572,
      "ких ": 2573,
      ") and ": 2574,
      "ile ": 2575,
      "бога": 2576,
      "исче": 2577,
      "чему": 2578,
      "шиф": 2579,
      "ments ": 2580,
      "разбуд": 2581,
      "chem": 2582,
      "друга ": 2583,
      "расота ": 2584,
      "resp": 2585,
      "е, чем ": 2586,
      "верх": 2587,
      "new ": 2588,
      "cle ": 2589,
      "or = ": 2590,
      "страш": 2591,
      "страда": 2592,
      "силь": 2593,
      "name, ": 2594,
      "else": 2595,
      "digital ": 2596,
      "__main": 2597,
      "путь ": 2598,
      "ровать ": 2599,
      "ous": 2600,
      "\n    \n    def get_": 2601,
      "notebook": 2602,
      "вседнев": 2603,
      "хоче": 2604,
      ":\n            return ": 2605,
      "ности, ": 2606,
      "существу": 2607,
      "text ": 2608,
      "as e": 2609,
      "results ": 2610,
      "file_path": 2611,
      "creates ": 2612,
      "This ": 2613,
      "plication": 2614,
      "основа": 2615,
      "рядо": 2616,
      "лучше ": 2617,
      "pho": 2618,
      "...": 2619,
      "действитель": 2620,
      "чувства": 2621,
      "храни": 2622,
      "learn ": 2623,
      "контро": 2624,
      "прит": 2625,
      "db.get_": 2626,
      "tasks": 2627,
      "след": 2628,
      " само": 2629,
      "добры": 2630,
      "?\nОтвет: Красота ": 2631,
      "process_": 2632,
      "key": 2633,
      "collection_name": 2634,
      "while ": 2635,
      "datetime.": 2636,
      ". Быть ": 2637,
      "зависит ": 2638,
      "зависимо": 2639,
      "transaction": 2640,
      "больше ": 2641,
      ")\n```": 2642,
      "возрасто": 2643,
      "то, что ты ": 2644,
      "command(label='": 2645,
      "have ": 2646,
      "одиноче": 2647,
      "прощать ": 2648,
      "Вопрос: Как научиться ": 2649,
      "Вопрос: Что значит быть вер": 2650,
      "bind": 2651,
      "приложения": 2652,
      "===": 2653,
      "Создаем ": 2654,
      "теряют ": 2655,
      "active": 2656,
      "Вопрос: Как перестать бояться ": 2657,
      "Вопрос: Как отличить любовь от ": 2658,
      "Database": 2659,
      "self.get_current_text_widget(": 2660,
      "acceler": 2661,
      "failure_": 2662,
      "ет ли дружба ": 2663,
      "Key ": 2664,
      "sleep": 2665,
      "Вопрос: Во сколько ": 2666,
      "внутреннее состоя": 2667,
      "Optional": 2668,
      "Proce": 2669,
      "йчас": 2670,
      "того, что ": 2671,
      "курси": 2672,
      ", которая ": 2673,
      "смотреть ": 2674,
      "Вопрос: Как побороть страх перед ": 2675,
      "NOT ": 2676,
      "уничто": 2677,
      "подаро": 2678,
      "взял ": 2679,
      "акая дружба ": 2680,
      "_menu.add_command(label='": 2681,
      "magnetic ": 2682,
      "pack(": 2683,
      "self.collections": 2684,
      "time = time.time": 2685,
      "OPEN": 2686,
      "Value": 2687,
      "gorith": 2688,
      "http": 2689,
      "эффек": 2690,
      "Вопрос: Может ли дружба ": 2691,
      "environ": 2692,
      "coffee": 2693,
      "chemical ": 2694,
      "__main__": 2695,
      "действительно ": 2696,
      "datetime.now": 2697,
      "зависит от ": 2698,
      "'\n        ": 2699,
      "':\n    ": 2700,
      "'\n\nclass ": 2701,
      "(*": 2702,
      "(self.": 2703,
      "),\n        ": 2704,
      "//": 2705,
      "=2": 2706,
      "=None": 2707,
      "Cre": 2708,
      "Ctr": 2709,
      "Do": 2710,
      "En": 2711,
      "Fal": 2712,
      "IM": 2713,
      "TA": 2714,
      "UL": 2715,
      "_url": 2716,
      "av": 2717,
      "brea": 2718,
      "cy ": 2719,
      "cap": 2720,
      "eli": 2721,
      "fact": 2722,
      "flu": 2723,
      "h ": 2724,
      "has ": 2725,
      "iqu": 2726,
      "json": 2727,
      "l+": 2728,
      "lay": 2729,
      "man": 2730,
      "nu": 2731,
      "oli": 2732,
      "por": 2733,
      "pay": 2734,
      "tail": 2735,
      "uses ": 2736,
      "ygen": 2737,
      "{user": 2738,
      "{\n        '": 2739,
      "} (": 2740,
      "}')\n    ": 2741,
      "Демо": 2742,
      "И ": 2743,
      "Ка": 2744,
      "Пу": 2745,
      "Ре": 2746,
      "ал ": 2747,
      "бло": 2748,
      "вдо": 2749,
      "вот ": 2750,
      "дл": 2751,
      "дро": 2752,
      "зу": 2753,
      "зре": 2754,
      "зак": 2755,
      "зер": 2756,
      "зем": 2757,
      "ишь ": 2758,
      "истин": 2759,
      "именно ": 2760,
      "йм": 2761,
      "к с": 2762,
      "ма ": 2763,
      "нда": 2764,
      "ого ": 2765,
      "оши": 2766,
      "очере": 2767,
      "осозна": 2768,
      "со ": 2769,
      "ск ": 2770,
      "снов": 2771,
      "сердц": 2772,
      "тно": 2773,
      "уда": 2774,
      "утра": 2775,
      "умени": 2776,
      "уваж": 2777,
      "хов": 2778,
      "хруп": 2779,
      "ца": 2780,
      "чный ": 2781,
      ", с ": 2782,
      "сто ": 2783,
      "ет.</s>": 2784,
      "нием ": 2785,
      "нием": 2786,
      "ний с": 2787,
      "ний, ": 2788,
      ". A": 2789,
      ". По": 2790,
      ". Главное ": 2791,
      "простран": 2792,
      "радова": 2793,
      "ное": 2794,
      "ной": 2795,
      "\n        print(f'": 2796,
      "into ": 2797,
      "instru": 2798,
      "sear": 2799,
      "вет ": 2800,
      "ature ": 2801,
      "Вопрос: Есть ": 2802,
      "rele": 2803,
      "?\nОтвет: C": 2804,
      "?\nОтвет: Г": 2805,
      "?\nОтвет: Те": 2806,
      "поко": 2807,
      "поле": 2808,
      "постепен": 2809,
      "ть в ": 2810,
      "ная": 2811,
      "написа": 2812,
      "оте": 2813,
      "ence": 2814,
      "ится": 2815,
      "вого ": 2816,
      "stor": 2817,
      "нес": 2818,
      "вас ": 2819,
      "вают": 2820,
      "льта": 2821,
      "льный ": 2822,
      "льная ": 2823,
      "в каждом ": 2824,
      "— в с": 2825,
      "обстоятель": 2826,
      "тель ": 2827,
      "рить ": 2828,
      "descri": 2829,
      "лась ": 2830,
      "тори": 2831,
      "у тебя ": 2832,
      "одного ": 2833,
      "деаль": 2834,
      "чат": 2835,
      "tech": 2836,
      "лиц": 2837,
      "мас": 2838,
      "мил ": 2839,
      ")\n                ": 2840,
      "ing (": 2841,
      "тирова": 2842,
      "тисти": 2843,
      "ice ": 2844,
      "вини": 2845,
      "види": 2846,
      "видел ": 2847,
      "люде": 2848,
      "вый ": 2849,
      "прия": 2850,
      "сегодня": 2851,
      "сейчас": 2852,
      "ложи": 2853,
      "ge(": 2854,
      "get": 2855,
      "циаль": 2856,
      "ду с": 2857,
      "?\nОтвет: Си": 2858,
      "инфор": 2859,
      "tri": 2860,
      "ated ": 2861,
      "для вас ": 2862,
      "бес": 2863,
      "использова": 2864,
      "unit": 2865,
      "lite": 2866,
      "life": 2867,
      "разно": 2868,
      "разру": 2869,
      "разработ": 2870,
      "частли": 2871,
      "раская": 2872,
      "овести": 2873,
      "любви": 2874,
      "move": 2875,
      "работать ": 2876,
      "word": 2877,
      "свою ": 2878,
      "api": 2879,
      "ext": 2880,
      "name__": 2881,
      "Вопрос: Почему": 2882,
      "divide": 2883,
      "__name__": 2884,
      "путе": 2885,
      "()\n    ": 2886,
      "жизни ": 2887,
      "noise ": 2888,
      "notification": 2889,
      ":\n    def __init__(self, ": 2890,
      "')\n                ": 2891,
      "живать ": 2892,
      "if __name__": 2893,
      "всё ": 2894,
      "всего ": 2895,
      "всеми ": 2896,
      "Вопрос: Ты кор": 2897,
      "чуж": 2898,
      "цель": 2899,
      "ностью": 2900,
      "ностью ": 2901,
      "'''\n        if ": 2902,
      "comput": 2903,
      "батыва": 2904,
      "='Ctr": 2905,
      "hear": 2906,
      "правду": 2907,
      "sign": 2908,
      "человек ": 2909,
      "человечески": 2910,
      "человеком ": 2911,
      "sup": 2912,
      "ческая ": 2913,
      "туаль": 2914,
      "istic": 2915,
      "ture ": 2916,
      "вляем ": 2917,
      "contro": 2918,
      "оставля": 2919,
      "людя": 2920,
      "process ": 2921,
      "чувству": 2922,
      "внутренний ": 2923,
      "ственная ": 2924,
      "tion as e": 2925,
      "ware ": 2926,
      "глубо": 2927,
      "000": 2928,
      "жизнь.</s>": 2929,
      "ator='Ctr": 2930,
      "ach ": 2931,
      "block": 2932,
      "чно! ": 2933,
      "systems ": 2934,
      "datetime": 2935,
      ". Ка": 2936,
      "ternal": 2937,
      "calculator": 2938,
      "filen": 2939,
      "transl": 2940,
      "самого ": 2941,
      "долж": 2942,
      "других": 2943,
      "ответы": 2944,
      "хороше": 2945,
      "?\nОтвет: Настоящий друг ": 2946,
      ". Такая дружба ": 2947,
      "ться.</s>": 2948,
      "нельзя уничто": 2949,
      "(user_id": 2950,
      ",\n            '": 2951,
      "находить ": 2952,
      "пользователя": 2953,
      "Вопрос: Что значит быть свобод": 2954,
      "счастливым": 2955,
      "доверять ": 2956,
      "root.": 2957,
      "свобода воли ": 2958,
      "computer ": 2959,
      "specif": 2960,
      "вопросы": 2961,
      "груз": 2962,
      "struc": 2963,
      "include: ": 2964,
      "?\nОтвет: Страх перед ": 2965,
      "вяда": 2966,
      "в повседнев": 2967,
      "организ": 2968,
      "\n\n```python\nimport ": 2969,
      "Запуск ": 2970,
      "следователь": 2971,
      "Python": 2972,
      "мудры": 2973,
      "мечта": 2974,
      "Exception as e": 2975,
      "Вопрос: Что-то я не могу ": 2976,
      "Вопрос: Ты не знаешь, почему так ": 2977,
      "совершен": 2978,
      "Вопрос: Что важнее ": 2979,
      "multip": 2980,
      "List[": 2981,
      "human ": 2982,
      "natural ": 2983,
      "water ": 2984,
      "один ": 2985,
      "ете о ": 2986,
      "чувствовать себя ": 2987,
      "можем выбра": 2988,
      "Добавляем ": 2989,
      "вчера ": 2990,
      "едине": 2991,
      "здесь ": 2992,
      "нстрация ": 2993,
      "управления ": 2994,
      "start_": 2995,
      "чинается ": 2996,
      "?\nОтвет: Доверие ": 2997,
      " == '__main__": 2998,
      "centr": 2999,
      "взаимо": 3000,
      "analy": 3001,
      "respir": 3002,
      "results = ": 3003,
      "Вопрос: Что значит быть верным": 3004,
      "accelerator='Ctr": 3005,
      "Вопрос: Во сколько завтра ": 3006,
      "False": 3007,
      "Демонстрация ": 3008,
      "осознан": 3009,
      "умении ": 3010,
      "Вопрос: Есть ли ": 3011,
      "информа": 3012,
      "if __name__ == '__main__": 3013,
      "Вопрос: Ты кормил ": 3014,
      "нельзя уничтожить ": 3015,
      "accelerator='Ctrl+": 3016,
      "if __name__ == '__main__':\n    ": 3017,
      "\nif __name__ == '__main__':\n    ": 3018,
      " С": 3019,
      " and ": 3020,
      " к ": 3021,
      " if ": 3022,
      "(2": 3023,
      "(\n            ": 3024,
      "() as ": 3025,
      ".fetch": 3026,
      "1_id": 3027,
      "1.0": 3028,
      "50": 3029,
      ":')\n    ": 3030,
      ":.2": 3031,
      "< ": 3032,
      "?', '": 3033,
      "Cir": 3034,
      "GP": 3035,
      "In": 3036,
      "LE": 3037,
      "OR": 3038,
      "SER": 3039,
      "The": 3040,
      "ace": 3041,
      "bon": 3042,
      "ble": 3043,
      "bes ": 3044,
      "ct ": 3045,
      "don": 3046,
      "g ": 3047,
      "g(": 3048,
      "gro": 3049,
      "hy": 3050,
      "hol": 3051,
      "ie": 3052,
      "mon": 3053,
      "mic": 3054,
      "mid": 3055,
      "mus": 3056,
      "ru": 3057,
      "s(self):\n        '''": 3058,
      "tar": 3059,
      "tal ": 3060,
      "tag": 3061,
      "vid": 3062,
      "wr": 3063,
      "wer": 3064,
      "аб": 3065,
      "бор": 3066,
      "гу ": 3067,
      "ем, ": 3068,
      "е, а не ": 3069,
      "ива": 3070,
      "кли": 3071,
      "кту": 3072,
      "ке.</s>": 3073,
      "м с": 3074,
      "ня ": 3075,
      "нс ": 3076,
      "ок": 3077,
      "оно ": 3078,
      "ожи": 3079,
      "ой, ": 3080,
      "пью": 3081,
      "рь": 3082,
      "се ": 3083,
      "счастье ": 3084,
      "совесть ": 3085,
      "т.</s>": 3086,
      "тен": 3087,
      "уста": 3088,
      "услы": 3089,
      "увяда": 3090,
      "фро": 3091,
      "х, а ": 3092,
      "хнов": 3093,
      "чет": 3094,
      "ча ": 3095,
      "чит": 3096,
      "чис": 3097,
      "чное ": 3098,
      "эго": 3099,
      "ящи": 3100,
      ", text": 3101,
      ", accelerator='Ctrl+": 3102,
      "ет, а ": 3103,
      "ник ": 3104,
      ". Г": 3105,
      ". The ": 3106,
      ". А ": 3107,
      ". This ": 3108,
      "и с": 3109,
      "и от": 3110,
      "и действи": 3111,
      "я с": 3112,
      "пройти ": 3113,
      "ine": 3114,
      "inu": 3115,
      "ines ": 3116,
      "session": 3117,
      "s with ": 3118,
      "s include ": 3119,
      "ativ": 3120,
      "rel": 3121,
      "rece": 3122,
      "реал": 3123,
      "рекурси": 3124,
      "поде": 3125,
      "повед": 3126,
      "помога": 3127,
      "посмотреть ": 3128,
      "напо": 3129,
      "отра": 3130,
      "or.": 3131,
      "enab": 3132,
      "entic": 3133,
      "\n    def ": 3134,
      "нер": 3135,
      "валась ": 3136,
      "м в ": 3137,
      "ный": 3138,
      "в на": 3139,
      "в наш": 3140,
      "мои ": 3141,
      "— те": 3142,
      "— перестать ": 3143,
      "— она ": 3144,
      "thres": 3145,
      "alth": 3146,
      "ally ": 3147,
      "algorith": 3148,
      "изо": 3149,
      "обла": 3150,
      "led": 3151,
      "код ": 3152,
      "тем ": 3153,
      "теле": 3154,
      "тестов": 3155,
      "detail": 3156,
      "ет из": 3157,
      "той ": 3158,
      "заря": 3159,
      "забыл ": 3160,
      "слож": 3161,
      "= 1": 3162,
      "mes ": 3163,
      "ман": 3164,
      "мат": 3165,
      ")\n        \n        ": 3166,
      "ing to ": 3167,
      "acter": 3168,
      "ть', command=self.": 3169,
      "Вопрос: Как вы ": 3170,
      "мечт": 3171,
      "assi": 3172,
      "'''\n                ": 3173,
      "цию ": 3174,
      "инстру": 3175,
      "го, ": 3176,
      "to_": 3177,
      "вее": 3178,
      "вечер": 3179,
      "- не ": 3180,
      "ки.</s>": 3181,
      "conver": 3182,
      "работы": 3183,
      "Вопрос: Что для вас ": 3184,
      "можешь ": 3185,
      "):\n        return f'": 3186,
      "там ": 3187,
      "менять ": 3188,
      "ментов": 3189,
      "chain ": 3190,
      "price": 3191,
      "', 1": 3192,
      "расс": 3193,
      "расстоя": 3194,
      "пара": 3195,
      "ся, ": 3196,
      "любит ": 3197,
      "вержда": 3198,
      "posi": 3199,
      "mock": 3200,
      "s. A": 3201,
      "s. E": 3202,
      "л для ": 3203,
      "— это возможность ": 3204,
      ", понима": 3205,
      "чист": 3206,
      "ить, ": 3207,
      "to the ": 3208,
      "страх": 3209,
      "страниц": 3210,
      "ние и ": 3211,
      "быть соб": 3212,
      "быть с собой ": 3213,
      "dire": 3214,
      "шанс ": 3215,
      "пут": 3216,
      "')\n\n# ": 3217,
      "()\n": 3218,
      "().": 3219,
      "()\n    \n    def ": 3220,
      "е. О": 3221,
      "нные ": 3222,
      "прекрас": 3223,
      "')\n            ": 3224,
      "strategy": 3225,
      "вспомни": 3226,
      "вселен": 3227,
      "add": 3228,
      "(self, message": 3229,
      "ques": 3230,
      "ство — ": 3231,
      " себя": 3232,
      ". Они ": 3233,
      "шед": 3234,
      "значит — перестать ": 3235,
      "db_name": 3236,
      "sub": 3237,
      "for i": 3238,
      ")\n            \n            ": 3239,
      "полно": 3240,
      "настоящая ": 3241,
      "настоящая": 3242,
      "м. М": 3243,
      "остается ": 3244,
      "ple ": 3245,
      "лучшие ": 3246,
      ",\n                '": 3247,
      ". В тишине ": 3248,
      "внутренняя ": 3249,
      ". Но совесть ": 3250,
      "):\n    def ": 3251,
      "beha": 3252,
      "при ": 3253,
      "компас": 3254,
      "компью": 3255,
      "безопас": 3256,
      " in ran": 3257,
      "pytest.": 3258,
      "строится ": 3259,
      "produce ": 3260,
      "produces ": 3261,
      ". Внеш": 3262,
      "?\nОтвет: О, ": 3263,
      "preci": 3264,
      "show": 3265,
      "?\nОтвет: Идеаль": 3266,
      "понимать ": 3267,
      "Вопрос: Как полюбить ": 3268,
      "Вопрос: Ты не забыл ": 3269,
      "говорит ": 3270,
      "чно, ": 3271,
      "клас": 3272,
      ". Когда ": 3273,
      "восстанов": 3274,
      "миру ": 3275,
      "self._que": 3276,
      "ly, ": 3277,
      "sound": 3278,
      "ответствен": 3279,
      "создания ": 3280,
      "влека": 3281,
      "она.</s>": 3282,
      "ошибки": 3283,
      "ницы": 3284,
      "under": 3285,
      "ER ": 3286,
      "weath": 3287,
      "с собой": 3288,
      "одиночеств": 3289,
      "ains ": 3290,
      "bar.": 3291,
      "честве. ": 3292,
      "искусствен": 3293,
      "valu": 3294,
      ". Мы ": 3295,
      "равно ": 3296,
      "connec": 3297,
      "(self):\n        return ": 3298,
      "— это не отсутствие ": 3299,
      "Главное — не ": 3300,
      "try:\n            ": 3301,
      "представля": 3302,
      "crypto": 3303,
      "open": 3304,
      "random": 3305,
      "деть": 3306,
      "решения ": 3307,
      "разум ": 3308,
      "quest": 3309,
      "блиц": 3310,
      "интернет": 3311,
      "основа ": 3312,
      "await asyncio.": 3313,
      "stance(": 3314,
      "обработка ": 3315,
      "конеч": 3316,
      "проверяется ": 3317,
      "security ": 3318,
      "security": 3319,
      "?\nОтвет: На ": 3320,
      "выполне": 3321,
      "правиль": 3322,
      "created_at": 3323,
      "physic": 3324,
      "physical ": 3325,
      "Вопрос: Куда поде": 3326,
      "?\nОтвет: Смысл в том, чтобы пройти ": 3327,
      " Ошиб": 3328,
      "our ": 3329,
      "Вопрос: Существу": 3330,
      "regul": 3331,
      "field": 3332,
      "достоинство": 3333,
      "_sort(": 3334,
      "help ": 3335,
      "услови": 3336,
      "начала ": 3337,
      "кий дар": 3338,
      ", потому что ": 3339,
      "глубж": 3340,
      "?\nОтвет: Любовь к себе ": 3341,
      "machine ": 3342,
      "oxygen": 3343,
      "получения ": 3344,
      "образова": 3345,
      "self.current_file": 3346,
      "пределен": 3347,
      "betwe": 3348,
      "Вопрос: Как найти ба": 3349,
      "except Exception as e": 3350,
      ".execute('''\n                ": 3351,
      "duration": 3352,
      "update": 3353,
      "истори": 3354,
      "между с": 3355,
      "raw_data": 3356,
      "частье — не ": 3357,
      "лучше. ": 3358,
      "... это ": 3359,
      "Вопрос: Как понять, что любовь ": 3360,
      "save_file": 3361,
      "сохранение": 3362,
      "immune ": 3363,
      "_year": 3364,
      "padx": 3365,
      "{self.name": 3366,
      "о временем ": 3367,
      "atomic ": 3368,
      "исчеза": 3369,
      "разбудить ": 3370,
      "ously ": 3371,
      "notebook.": 3372,
      "контроли": 3373,
      ". Быть тем, кто ": 3374,
      "bind('<": 3375,
      "эффектив": 3376,
      "coffee_": 3377,
      "Eng": 3378,
      "вдохнов": 3379,
      "радоваться ": 3380,
      "instruction": 3381,
      "describes ": 3382,
      "life.</s>": 3383,
      "signal": 3384,
      "человеком ты ": 3385,
      "Вопрос: Что значит быть свободным ": 3386,
      "specific ": 3387,
      "Вопрос: Что значит быть верным сво": 3388,
      ":.2f": 3389,
      "ожида": 3390,
      "эгоиз": 3391,
      "threshol": 3392,
      ". Но совесть нельзя уничтожить ": 3393,
      "behavi": 3394,
      "Вопрос: Куда подевалась ": 3395,
      " в ": 3396,
      " * ": 3397,
      "'m ": 3398,
      "() ": 3399,
      "(tasks": 3400,
      "*.": 3401,
      "- с": 3402,
      "-за ": 3403,
      "15": 3404,
      "1) ": 3405,
      "20": 3406,
      "3.": 3407,
      "30": 3408,
      "5, ": 3409,
      ":%": 3410,
      "?, ": 3411,
      "@app": 3412,
      "Cal": 3413,
      "CRE": 3414,
      "Dict": 3415,
      "JS": 3416,
      "Ne": 3417,
      "RO": 3418,
      "Ser": 3419,
      "TO": 3420,
      "UES": 3421,
      "] ": 3422,
      "]\n    ": 3423,
      "_ser": 3424,
      "_pool": 3425,
      "are": 3426,
      "area": 3427,
      "a, b": 3428,
      "bre": 3429,
      "ber": 3430,
      "bra": 3431,
      "bon ": 3432,
      "back": 3433,
      "cor": 3434,
      "cance": 3435,
      "dd": 3436,
      "da ": 3437,
      "e: ": 3438,
      "gi": 3439,
      "hor": 3440,
      "jo": 3441,
      "l-": 3442,
      "land": 3443,
      "num": 3444,
      "niqu": 3445,
      "oc": 3446,
      "run": 3447,
      "sco": 3448,
      "s': ": 3449,
      "sor = ": 3450,
      "uth": 3451,
      "uid": 3452,
      "y, ": 3453,
      "your ": 3454,
      "})": 3455,
      "Без ": 3456,
      "Ва": 3457,
      "Ищи ": 3458,
      "Ну": 3459,
      "ОП": 3460,
      "Об": 3461,
      "Ро": 3462,
      "У ": 3463,
      "амые ": 3464,
      "асто ": 3465,
      "бре": 3466,
      "вла": 3467,
      "вклад": 3468,
      "ге": 3469,
      "гда": 3470,
      "г, а ": 3471,
      "гнов": 3472,
      "главное ": 3473,
      "дра": 3474,
      "дре": 3475,
      "дво": 3476,
      "дня": 3477,
      "ей, ": 3478,
      "есте": 3479,
      "жить": 3480,
      "жения ": 3481,
      "зи": 3482,
      "зака": 3483,
      "их с": 3484,
      "к, ": 3485,
      "кри": 3486,
      "ке, ": 3487,
      "ксту": 3488,
      "лё": 3489,
      "лени": 3490,
      "лле": 3491,
      "мо ": 3492,
      "мгнов": 3493,
      "ог": 3494,
      "ое ": 3495,
      "ом ": 3496,
      "огра": 3497,
      "олько ": 3498,
      "осу": 3499,
      "пси": 3500,
      "пита": 3501,
      "рхи": 3502,
      "ртуаль": 3503,
      "сь": 3504,
      "сить ": 3505,
      "тоб": 3506,
      "твержда": 3507,
      "ув": 3508,
      "ува": 3509,
      "уча": 3510,
      "улы": 3511,
      "уника": 3512,
      "фе": 3513,
      "хи ": 3514,
      "ши ": 3515,
      "шру": 3516,
      "шум": 3517,
      "ытия": 3518,
      "я, а ": 3519,
      "ём ": 3520,
      "– ": 3521,
      "✅ ": 3522,
      ", 2": 3523,
      ": float": 3524,
      "е нельзя ": 3525,
      "е лекар": 3526,
      "етод": 3527,
      ". Х": 3528,
      "произ": 3529,
      "проти": 3530,
      "проходит ": 3531,
      "ind": 3532,
      "int": 3533,
      "int, ": 3534,
      "instance(": 3535,
      "sed ": 3536,
      "setu": 3537,
      "re, ": 3538,
      "ree ": 3539,
      "requ": 3540,
      "rewar": 3541,
      "request": 3542,
      "?\nОтвет: Л": 3543,
      "ресу": 3544,
      "рести ": 3545,
      "пор": 3546,
      "поли": 3547,
      "послед": 3548,
      "най": 3549,
      "нас ": 3550,
      "найти ": 3551,
      "научиться ": 3552,
      "начинается ": 3553,
      "отли": 3554,
      " слы": 3555,
      "oral ": 3556,
      "ene": 3557,
      "ents ": 3558,
      "ent = ": 3559,
      "ties ": 3560,
      "erm": 3561,
      "вой ": 3562,
      "волов": 3563,
      "stage": 3564,
      "stand": 3565,
      "ней": 3566,
      "неуверен": 3567,
      "нее: ": 3568,
      "ерви": 3569,
      "ержать ": 3570,
      "вание ": 3571,
      "м мы ": 3572,
      "в не": 3573,
      "мом и ": 3574,
      "мост ": 3575,
      "морф": 3576,
      "дан": 3577,
      "— и ": 3578,
      "— как ": 3579,
      "— ред": 3580,
      "all": 3581,
      "ень": 3582,
      "не с": 3583,
      "не бо": 3584,
      "обрести ": 3585,
      "ка, ": 3586,
      "ка.</s>": 3587,
      "но в ": 3588,
      "тебя": 3589,
      "рис": 3590,
      "рия": 3591,
      "de='": 3592,
      "ет в ": 3593,
      "ет ценить ": 3594,
      "заме": 3595,
      "забот": 3596,
      "запа": 3597,
      "завер": 3598,
      "запу": 3599,
      "у — ": 3600,
      "слова": 3601,
      ":\n        print(f'": 3602,
      "чает ": 3603,
      "metr": 3604,
      "meter": 3605,
      "com": 3606,
      "cop": 3607,
      "х и ": 3608,
      "лия": 3609,
      "лись ": 3610,
      "маш": 3611,
      "мало ": 3612,
      "став": 3613,
      "стара": 3614,
      "минут": 3615,
      "мира ": 3616,
      "мимол": 3617,
      "стой": 3618,
      "столе": 3619,
      "столько ": 3620,
      "self.cal": 3621,
      "дожд": 3622,
      "tion, and ": 3623,
      "accoun": 3624,
      "ication ": 3625,
      "людей": 3626,
      "выез": 3627,
      "прин": 3628,
      "придает ": 3629,
      "привлека": 3630,
      "itu": 3631,
      "сем": 3632,
      "лось ": 3633,
      "с достоинство": 3634,
      "цикла": 3635,
      "ции.</s>": 3636,
      "т не ": 3637,
      "?\nОтвет: Способность ": 3638,
      "го-то ": 3639,
      "голов": 3640,
      "total": 3641,
      "вече": 3642,
      "ит в ": 3643,
      ", куда ": 3644,
      "- в ": 3645,
      "confi": 3646,
      "мыш": 3647,
      "работу": 3648,
      "что самое ": 3649,
      "для ребен": 3650,
      "боле": 3651,
      "боим": 3652,
      "\n    \n    @": 3653,
      "луша": 3654,
      "lier": 3655,
      "Получа": 3656,
      "):\n        if ": 3657,
      "разговор": 3658,
      "татисти": 3659,
      "', la": 3660,
      "', padx": 3661,
      "расход": 3662,
      "расска": 3663,
      "пать, но ": 3664,
      "щедро": 3665,
      "щим ": 3666,
      "люби": 3667,
      "absor": 3668,
      "return None": 3669,
      "mole": 3670,
      "s. M": 3671,
      "s. Key ": 3672,
      "mak": 3673,
      "чива": 3674,
      "ение к ": 3675,
      "переп": 3676,
      "свобо": 3677,
      "такой ": 3678,
      "ние конеч": 3679,
      "сим": 3680,
      "the bod": 3681,
      "ждения": 3682,
      "work ": 3683,
      "')\n\n": 3684,
      "'),\n                ": 3685,
      "())\n        ": 3686,
      "преда": 3687,
      "преод": 3688,
      "жизни.</s>": 3689,
      "! По": 3690,
      "database": 3691,
      "жили ": 3692,
      "cir": 3693,
      "without ": 3694,
      "Вопрос: Ты помни": 3695,
      "Вопрос: Ты видел": 3696,
      "Вопрос: Ты взял ": 3697,
      ":\n            print(f'": 3698,
      "(self, amount": 3699,
      "возника": 3700,
      "нутри ": 3701,
      "qual": 3702,
      " себя ": 3703,
      "балан": 3704,
      "post_data": 3705,
      "шестви": 3706,
      "время": 3707,
      "? К": 3708,
      "siz": 3709,
      "side='": 3710,
      "пыт": 3711,
      "sug": 3712,
      "super": 3713,
      "velo": 3714,
      "из пол": 3715,
      "ности заставля": 3716,
      "Вопрос: В чем ": 3717,
      "isinstance(": 3718,
      "ager": 3719,
      "ступа": 3720,
      "все равно ": 3721,
      "tual ": 3722,
      "tures": 3723,
      "м. Д": 3724,
      "выбира": 3725,
      "content = ": 3726,
      ". Не в ": 3727,
      ". Не обязательно ": 3728,
      "ки и ": 3729,
      "относ": 3730,
      "осмысл": 3731,
      "?\nОтвет: Програм": 3732,
      "', '*.": 3733,
      "ue.": 3734,
      "говори": 3735,
      "внутренний с": 3736,
      "хране": 3737,
      "родник ": 3738,
      "):\n    def __init__(self, ": 3739,
      ". Дру": 3740,
      "ity (": 3741,
      "глуша": 3742,
      "authentic": 3743,
      "'])\n": 3744,
      "task_id": 3745,
      "бива": 3746,
      "shape": 3747,
      ". Пере": 3748,
      "processor.": 3749,
      "key ": 3750,
      "ты, ": 3751,
      "ты с": 3752,
      "душа ": 3753,
      "Вопрос: Ты не видел ": 3754,
      "лы', '*.": 3755,
      "calcul": 3756,
      "взгля": 3757,
      "день ": 3758,
      "ценный ": 3759,
      "send": 3760,
      "conn:\n            cur": 3761,
      "transmit": 3762,
      "кусство ": 3763,
      "mater": 3764,
      "match": 3765,
      "готовка ": 3766,
      "первого ": 3767,
      "трудно ": 3768,
      "трудностя": 3769,
      "должен ": 3770,
      "принять ": 3771,
      "electro": 3772,
      ": str) -> ": 3773,
      "ть, значит — перестать ": 3774,
      "menubar": 3775,
      "Любовь ": 3776,
      "ected": 3777,
      ". Прошлое — ": 3778,
      ". Она проходит ": 3779,
      "flow": 3780,
      "опыт ": 3781,
      "алгорит": 3782,
      "всегда есть ": 3783,
      "дыха": 3784,
      "group_": 3785,
      ")\n    \n    # ": 3786,
      "INTE": 3787,
      "ep ": 3788,
      "len(arr": 3789,
      "искусство ": 3790,
      "настоящее.</s>": 3791,
      "items": 3792,
      "ftware ": 3793,
      "?\nОтвет: Совесть — это ": 3794,
      "not in ": 3795,
      "красивы": 3796,
      "HTTPExcep": 3797,
      "Contro": 3798,
      "language": 3799,
      ". Чем ": 3800,
      "приложени": 3801,
      "balance ": 3802,
      "Создание ": 3803,
      "довери": 3804,
      "файлы', '*.": 3805,
      "изация": 3806,
      "root": 3807,
      "сохрани": 3808,
      "network ": 3809,
      "future": 3810,
      "обеща": 3811,
      "обычно ": 3812,
      "crip": 3813,
      "skill": 3814,
      "сознание конеч": 3815,
      "боятся ": 3816,
      "raise Value": 3817,
      "анал": 3818,
      "ключа": 3819,
      "по-разно": 3820,
      "маленькие ": 3821,
      "свободить ": 3822,
      "expected": 3823,
      "поддержива": 3824,
      "Payment": 3825,
      "cycle ": 3826,
      "carbon ": 3827,
      "mark": 3828,
      "мудре": 3829,
      ". Раз": 3830,
      "проекта": 3831,
      "identif": 3832,
      "mbda ": 3833,
      "показывает ": 3834,
      "дать миру ": 3835,
      "старых ": 3836,
      "assert": 3837,
      "assert ": 3838,
      "'''\n        with self.get_": 3839,
      "print('\\\\n=== ": 3840,
      "без совести": 3841,
      "perimeter": 3842,
      ".get('": 3843,
      "sql": 3844,
      "sqlite": 3845,
      "испытание ": 3846,
      "родителей ": 3847,
      "?\nОтвет: Одиночество — ": 3848,
      "рождается из ": 3849,
      "status_bar.": 3850,
      "текст": 3851,
      "кажется, ": 3852,
      "?\nОтвет: Прощение — ": 3853,
      "arr[j": 3854,
      "задачи ": 3855,
      "?\nОтвет: Настоящая любовь — это ": 3856,
      "проблем, а ": 3857,
      "играть ": 3858,
      "маршру": 3859,
      "traction ": 3860,
      "может спать, но ": 3861,
      "max_worker": 3862,
      "требует ": 3863,
      "conn.cursor": 3864,
      "connection_pool": 3865,
      ", поддерж": 3866,
      "эмоциона": 3867,
      "based on ": 3868,
      "?\nОтвет: Смерть придает ": 3869,
      "s=['": 3870,
      "здоров": 3871,
      "нное программирова": 3872,
      ". Люди, которые ": 3873,
      "поступка": 3874,
      "направление, ": 3875,
      "toolbar": 3876,
      "богат": 3877,
      "теряют ориен": 3878,
      "failure_threshol": 3879,
      "sleep(": 3880,
      "Optional[": 3881,
      "break": 3882,
      "nutri": 3883,
      "olis": 3884,
      "уважение, ": 3885,
      "хрупко": 3886,
      "?\nОтвет: Технологи": 3887,
      "полез": 3888,
      "обстоятельства": 3889,
      "людей ": 3890,
      "частлив ": 3891,
      "путешестви": 3892,
      "жизни цен": 3893,
      "всеми недостат": 3894,
      "оставляя ": 3895,
      "внутренний компас": 3896,
      "filename": 3897,
      "Вопрос: Что важнее для ребен": 3898,
      "multiplier": 3899,
      "Вопрос: Есть ли свобода воли ": 3900,
      "don't ": 3901,
      "tags=['": 3902,
      "отравля": 3903,
      "нерги": 3904,
      "— она может спать, но ": 3905,
      "', 18": 3906,
      " in range(": 3907,
      "?\nОтвет: Идеальных ": 3908,
      "weather ": 3909,
      " Ошибка ": 3910,
      "between ": 3911,
      "Вопрос: Как найти баланс между ": 3912,
      "{self.name} ": 3913,
      "bind('<Contro": 3914,
      "эгоизм, а ": 3915,
      "JSON": 3916,
      "e: self.": 3917,
      "sor = conn.cursor": 3918,
      "ограни": 3919,
      "олько из пол": 3920,
      "етод ": 3921,
      "setup": 3922,
      "ресур": 3923,
      "морфиз": 3924,
      "self.calc": 3925,
      "total_": 3926,
      "config(": 3927,
      "боимся ": 3928,
      "Получаем ": 3929,
      "', lambda ": 3930,
      "ности заставляет ценить ": 3931,
      "'])\nasync def ": 3932,
      "conn:\n            cursor = conn.cursor": 3933,
      "INTEG": 3934,
      "сознание конечности заставляет ценить ": 3935,
      "raise ValueError('": 3936,
      "маршрут": 3937,
      "?\nОтвет: Смерть придает жизни цен": 3938,
      "Вопрос: Что важнее для ребенка: ": 3939,
      "bind('<Control-": 3940,
      "', lambda e: self.": 3941,
      "\ndef ": 3942,
      " 2": 3943,
      "'1.0": 3944,
      "(а": 3945,
      "(data": 3946,
      "(10": 3947,
      "(toolbar": 3948,
      ")}": 3949,
      ").</s>": 3950,
      ")  # ": 3951,
      "- си": 3952,
      ".HTTP": 3953,
      ".\n\n```python": 3954,
      ".'</s>": 3955,
      "0, ": 3956,
      "1]": 3957,
      "5) ": 3958,
      ":', ": 3959,
      ":00": 3960,
      "://": 3961,
      ":\n\n```python\nimport ": 3962,
      "=status": 3963,
      "=os.": 3964,
      "?'</s>": 3965,
      "Ac": 3966,
      "AI ": 3967,
      "B_": 3968,
      "Blo": 3969,
      "Base": 3970,
      "BY ": 3971,
      "CT ": 3972,
      "DB_": 3973,
      "FRO": 3974,
      "ID": 3975,
      "KE": 3976,
      "L,\n                    ": 3977,
      "M ": 3978,
      "Man": 3979,
      "NUL": 3980,
      "P ": 3981,
      "Par": 3982,
      "RNA ": 3983,
      "ST": 3984,
      "Sy": 3985,
      "T,\n                    ": 3986,
      "UN": 3987,
      "UR": 3988,
      "]\n    \n    ": 3989,
      "])\n    ": 3990,
      "_4": 3991,
      "_user_data": 3992,
      "_sound": 3993,
      "aS": 3994,
      "am": 3995,
      "a, ": 3996,
      "ad ": 3997,
      "amp": 3998,
      "ame ": 3999,
      "b.": 4000,
      "by_": 4001,
      "ca": 4002,
      "cli": 4003,
      "clo": 4004,
      "dit": 4005,
      "ge ": 4006,
      "ger ": 4007,
      "glu": 4008,
      "iver": 4009,
      "last": 4010,
      "ogen": 4011,
      "pan": 4012,
      "pip": 4013,
      "sal": 4014,
      "sur": 4015,
      "sate": 4016,
      "sun": 4017,
      "sci": 4018,
      "tor": 4019,
      "ual ": 4020,
      "uuid": 4021,
      "v('": 4022,
      "vasy": 4023,
      "y.": 4024,
      "{'": 4025,
      "{amount": 4026,
      "Асинхро": 4027,
      "Да": 4028,
      "Если ": 4029,
      "Пет": 4030,
      "Род": 4031,
      "Фи": 4032,
      "Фай": 4033,
      "Часто ": 4034,
      "Чув": 4035,
      "ан": 4036,
      "аро": 4037,
      "асинхро": 4038,
      "биз": 4039,
      "бе — ": 4040,
      "ва ": 4041,
      "вме": 4042,
      "в се": 4043,
      "вую ": 4044,
      "гко ": 4045,
      "дж": 4046,
      "дви": 4047,
      "дин": 4048,
      "дву": 4049,
      "ев": 4050,
      "емый ": 4051,
      "жи ": 4052,
      "жит": 4053,
      "жение ": 4054,
      "зов": 4055,
      "име": 4056,
      "йся ": 4057,
      "йся": 4058,
      "й с ": 4059,
      "й. Можно ": 4060,
      "кр": 4061,
      "кров": 4062,
      "как с": 4063,
      "ления": 4064,
      "лнц": 4065,
      "ме ": 4066,
      "мов": 4067,
      "м с ": 4068,
      "много": 4069,
      "нь": 4070,
      "нного ": 4071,
      "опе": 4072,
      "озна": 4073,
      "оправ": 4074,
      "оказыва": 4075,
      "определен": 4076,
      "освободить ": 4077,
      "о. Раз": 4078,
      "пит": 4079,
      "пло": 4080,
      "пря": 4081,
      "сы": 4082,
      "сь, ": 4083,
      "сред": 4084,
      "спут": 4085,
      "тё": 4086,
      "ту ": 4087,
      "уме": 4088,
      "уду": 4089,
      "узна": 4090,
      "учу": 4091,
      "фей": 4092,
      "худ": 4093,
      "чу ": 4094,
      "шра": 4095,
      "шком ": 4096,
      "щить ": 4097,
      "ъе": 4098,
      "ый с": 4099,
      "эле": 4100,
      "этого ": 4101,
      "энерги": 4102,
      "яр": 4103,
      "ётся ": 4104,
      ", 3": 4105,
      ", даже ": 4106,
      "стя": 4107,
      "ста ": 4108,
      "стит": 4109,
      "ств ": 4110,
      ": можно ": 4111,
      ": что самое ": 4112,
      "о смер": 4113,
      "о чё": 4114,
      "ети": 4115,
      "ние. ": 4116,
      "ний.</s>": 4117,
      ". F": 4118,
      ". P": 4119,
      ". U": 4120,
      "и и ": 4121,
      "и сейчас": 4122,
      "я по": 4123,
      "про ": 4124,
      "проду": 4125,
      "продол": 4126,
      "прошед": 4127,
      "пробива": 4128,
      "рак": 4129,
      "раду": 4130,
      "растить ": 4131,
      "ное, ": 4132,
      "ногда ": 4133,
      "ное. ": 4134,
      "новые ": 4135,
      "\n        if ": 4136,
      "inde": 4137,
      "inser": 4138,
      "ines": 4139,
      "sequ": 4140,
      "s that ": 4141,
      "?\nОтвет: Ф": 4142,
      "?\nОтвет: Х": 4143,
      "?\nОтвет: Э": 4144,
      "?\nОтвет: I ": 4145,
      "рек": 4146,
      "повто": 4147,
      "ть и ": 4148,
      "ть о смер": 4149,
      "на.</s>": 4150,
      "наше": 4151,
      "научи": 4152,
      "отруд": 4153,
      " скаж": 4154,
      " слож": 4155,
      "овь, ": 4156,
      "овремен": 4157,
      "e == '": 4158,
      "чение ": 4159,
      "чение": 4160,
      "ant ": 4161,
      "eng": 4162,
      "env('": 4163,
      "tim": 4164,
      "ит са": 4165,
      "вообра": 4166,
      "несовершен": 4167,
      "вая ": 4168,
      "важно ": 4169,
      "вайся": 4170,
      "льное ": 4171,
      "в отношения": 4172,
      "в лиц": 4173,
      "в худ": 4174,
      "моз": 4175,
      "моби": 4176,
      "мочь ": 4177,
      "да.</s>": 4178,
      "— есть ": 4179,
      "— достаточно ": 4180,
      "— посмотреть ": 4181,
      "this ": 4182,
      "thon ": 4183,
      "aliz": 4184,
      "ении": 4185,
      "не по": 4186,
      "не в ": 4187,
      "не готов": 4188,
      "не существу": 4189,
      "не дать миру ": 4190,
      "измер": 4191,
      "обрет": 4192,
      "кам": 4193,
      "кап": 4194,
      "кать ": 4195,
      "ы и ": 4196,
      "lef": 4197,
      "les": 4198,
      "кое ": 4199,
      "тех": 4200,
      "тести": 4201,
      "rowa": 4202,
      "def": 4203,
      "ет на ": 4204,
      "uring ": 4205,
      "зами ": 4206,
      "руж": 4207,
      "ing.</s>": 4208,
      "деал ": 4209,
      "сли": 4210,
      "чаши ": 4211,
      "ностей": 4212,
      "med": 4213,
      "mem": 4214,
      "metab": 4215,
      "стве ": 4216,
      "cod": 4217,
      "ливо": 4218,
      "мат ": 4219,
      "стать ": 4220,
      "мина": 4221,
      "self.stat": 4222,
      "self.db_name": 4223,
      "на о": 4224,
      "на не ": 4225,
      "tion(\n            ": 4226,
      "ing work?\nОтвет: ": 4227,
      "тихо": 4228,
      "act ": 4229,
      "ick": 4230,
      "виртуаль": 4231,
      "выч": 4232,
      "природ": 4233,
      "приговор": 4234,
      "привыч": 4235,
      "сед": 4236,
      "лома": 4237,
      "леду": 4238,
      "лечит": 4239,
      "с возрасто": 4240,
      "users ": 4241,
      "users = ": 4242,
      "цией": 4243,
      "цифро": 4244,
      "душа": 4245,
      "t(self.db_name": 4246,
      "tosynthes": 4247,
      "веро": 4248,
      ", а можно ": 4249,
      ", а зада": 4250,
      "ля одного ": 4251,
      "consu": 4252,
      "context": 4253,
      "быто": 4254,
      "быстре": 4255,
      "работа ": 4256,
      "печат": 4257,
      "ular ": 4258,
      "солю": 4259,
      "сомне": 4260,
      "социаль": 4261,
      "для друго": 4262,
      "ляцио": 4263,
      "боли": 4264,
      "иск ": 4265,
      "n = ": 4266,
      "undo": 4267,
      "может, ": 4268,
      "lish": 4269,
      "light": 4270,
      "ший с": 4271,
      "Польз": 4272,
      "няти": 4273,
      "разв": 4274,
      "разниц": 4275,
      "provide": 4276,
      "тащить ": 4277,
      "che": 4278,
      "chang": 4279,
      "купить ": 4280,
      "', постепен": 4281,
      "low ": 4282,
      "друз": 4283,
      "памя": 4284,
      "паттер": 4285,
      "ression": 4286,
      "от чуж": 4287,
      "овесть": 4288,
      "любовь": 4289,
      "верность ": 4290,
      "верного ": 4291,
      "able": 4292,
      "nection": 4293,
      "удья": 4294,
      "ка для ": 4295,
      "работают ": 4296,
      "main ": 4297,
      "make": 4298,
      "\n                '": 4299,
      "чиво": 4300,
      "числ": 4301,
      "ный интеллек": 4302,
      "гаран": 4303,
      "перед": 4304,
      "свое ": 4305,
      "страха": 4306,
      "ние души": 4307,
      "сия": 4308,
      "систе": 4309,
      "нимать ": 4310,
      "правед": 4311,
      "name': '": 4312,
      "vices ": 4313,
      "ждение ": 4314,
      "ждый ": 4315,
      "ется в ": 4316,
      "ровать": 4317,
      "at the ": 4318,
      "м, где ": 4319,
      "стиму": 4320,
      "nolo": 4321,
      ":\n    def ": 4322,
      "raise": 4323,
      "')\n        \n        # ": 4324,
      " = self.": 4325,
      "всю ": 4326,
      "самые ": 4327,
      "Вопрос: Почему некотор": 4328,
      "границы": 4329,
      "very_": 4330,
      "ют направление, ": 4331,
      "timeout": 4332,
      "хоже": 4333,
      "делают ": 4334,
      "нутрен": 4335,
      "data, ": 4336,
      "_id, '": 4337,
      "quer": 4338,
      "quick": 4339,
      "жат ": 4340,
      "ство для ": 4341,
      "tics ": 4342,
      "ticles ": 4343,
      "Моск": 4344,
      "ные люди ": 4345,
      "'''\n        try:\n            ": 4346,
      "bool": 4347,
      ". Счастлив ": 4348,
      "rent ": 4349,
      "compon": 4350,
      "compan": 4351,
      "ба, ": 4352,
      "база ": 4353,
      ". Оно в ": 4354,
      "hei": 4355,
      "health": 4356,
      "за то, что ": 4357,
      "правление ": 4358,
      "шее лекар": 4359,
      "cules ": 4360,
      "? И": 4361,
      "? Что ": 4362,
      "? Часто ": 4363,
      "ние, которое ": 4364,
      "': datetime.now": 4365,
      "result, ": 4366,
      "ют', постепен": 4367,
      "ческая": 4368,
      "auto_": 4369,
      "из неизвест": 4370,
      ")\n            return ": 4371,
      "можно изменить ": 4372,
      "красот": 4373,
      "?\nОтвет: Друж": 4374,
      "туда ": 4375,
      "isms ": 4376,
      "isker": 4377,
      "внутри ": 4378,
      "через раская": 4379,
      "овершен": 4380,
      "все и быть ": 4381,
      "continu": 4382,
      "ится через ": 4383,
      "currency ": 4384,
      "import datetime": 4385,
      "?\nОтвет: Прошло": 4386,
      "?\nОтвет: Прошлое — ": 4387,
      "ые ответы": 4388,
      ". Идеал ": 4389,
      " собой": 4390,
      "важно": 4391,
      "чувство": 4392,
      "чувств ": 4393,
      ", кто любит ": 4394,
      "харак": 4395,
      "отношения ": 4396,
      "имволов": 4397,
      ". Держать ": 4398,
      "ной чаши ": 4399,
      "видит ": 4400,
      "бездуш": 4401,
      "безуслов": 4402,
      "['id": 4403,
      "s.append(": 4404,
      "только в ": 4405,
      "только физи": 4406,
      "только чувство": 4407,
      "angle": 4408,
      "production": 4409,
      "width": 4410,
      ". Ва": 4411,
      ". Вы": 4412,
      " сами": 4413,
      "жизнь": 4414,
      "зывают ": 4415,
      "скажи": 4416,
      "\n\n# Те": 4417,
      "part": 4418,
      "shap": 4419,
      "ship": 4420,
      ". Пер": 4421,
      "s = [": 4422,
      "ны за": 4423,
      ". Научиться ": 4424,
      "block ": 4425,
      "перестаешь ": 4426,
      "говорят": 4427,
      "whisker": 4428,
      "Тест": 4429,
      "идеа": 4430,
      "принимает ": 4431,
      "будущим ": 4432,
      "datetime ": 4433,
      ". Как с": 4434,
      "восстано": 4435,
      "ternal ": 4436,
      "Вопрос: В чем смысл жизни, если мы ": 4437,
      "взять ": 4438,
      "тся вместе с ": 4439,
      "задачи": 4440,
      "деления ": 4441,
      "ack ": 4442,
      "перь ": 4443,
      "cursor() as ": 4444,
      "software ": 4445,
      "utton": 4446,
      "вместе, ": 4447,
      "идет из": 4448,
      "дружба не бо": 4449,
      "External": 4450,
      ". Проходит ": 4451,
      ". Простить ": 4452,
      "Вопрос: Как с": 4453,
      "честности": 4454,
      "молод": 4455,
      "count": 4456,
      "данных.</s>": 4457,
      "pathogen": 4458,
      "опыта": 4459,
      "ошибки, ": 4460,
      "delay": 4461,
      "users', ": 4462,
      ".\nОтвет: О": 4463,
      "благода": 4464,
      "годня ": 4465,
      "пись": 4466,
      "шься ": 4467,
      "recovery_": 4468,
      "?\nОтвет: Страхи ": 4469,
      "UserResponse": 4470,
      "светится через ": 4471,
      "радость ": 4472,
      "изменить, но ": 4473,
      "темно": 4474,
      "\nfrom datetime ": 4475,
      "+ 1": 4476,
      ",\n            detail": 4477,
      "len(content": 4478,
      "филь": 4479,
      "?\nОтвет: Смысл в каждом ": 4480,
      ") as conn:\n            cursor = conn.cursor": 4481,
      "пользователей": 4482,
      "objec": 4483,
      "внешних ": 4484,
      "нового ": 4485,
      "состояние души": 4486,
      "maint": 4487,
      "exception": 4488,
      "красивые ": 4489,
      "будущего": 4490,
      "electron": 4491,
      "electric ": 4492,
      "electrical ": 4493,
      "Connection": 4494,
      "budd": 4495,
      "put ": 4496,
      "sample": 4497,
      "energy": 4498,
      "results": 4499,
      "event": 4500,
      "автор": 4501,
      "ги на ": 4502,
      "файл": 4503,
      "файла": 4504,
      "their ": 4505,
      "изации ": 4506,
      "слуша": 4507,
      "networks ": 4508,
      "Может, ": 4509,
      "title, ": 4510,
      "typing ": 4511,
      "слабо": 4512,
      "утрен": 4513,
      "функ": 4514,
      "фунда": 4515,
      "обыден": 4516,
      "'''\n    if ": 4517,
      "user_posts": 4518,
      "был бы ": 4519,
      "разумом и ": 4520,
      "computer": 4521,
      "каждого ": 4522,
      "умение видеть ": 4523,
      "успеха": 4524,
      "интерфей": 4525,
      "name = ": 4526,
      "docs": 4527,
      "raise HTTPExcep": 4528,
      "красота идет из": 4529,
      "includes ": 4530,
      "text_widget = ": 4531,
      "Data": 4532,
      "анархи": 4533,
      "во дво": 4534,
      "ключ": 4535,
      ", забот": 4536,
      ". Ле": 4537,
      "по-настояще": 4538,
      "обиду — ": 4539,
      "access ": 4540,
      "свой путь ": 4541,
      "Запуска": 4542,
      "Python ": 4543,
      "Payment(": 4544,
      "таких ": 4545,
      ". Раны за": 4546,
      "?\nОтвет: Нет, ": 4547,
      "обрабатыва": 4548,
      "казал ": 4549,
      "code=status": 4550,
      "Вопрос: Как думаешь, это ": 4551,
      "хороший ": 4552,
      "тем, кто рядо": 4553,
      "?\nОтвет: Смысл в том, чтобы оставить ": 4554,
      "признает ": 4555,
      "various ": 4556,
      "птиц": 4557,
      ". It ": 4558,
      "Вопрос: Что важнее: ": 4559,
      "'''\n        with sqlite": 4560,
      "пособ путешестви": 4561,
      "мир — достаточно ": 4562,
      "ердцами": 4563,
      "multiple ": 4564,
      ").pack(": 4565,
      "_sort": 4566,
      "ежедневный выбор": 4567,
      "цвета": 4568,
      ": 'Что ": 4569,
      "?\nОтвет: Баланс ": 4570,
      "?\nОтвет: Баланс между ": 4571,
      "часть цикла": 4572,
      "приходят ": 4573,
      "trait": 4574,
      "status_code=status": 4575,
      "TEX": 4576,
      "Пара": 4577,
      "Вопрос: Где мои ": 4578,
      "Вопрос: Почему люди боятся ": 4579,
      "иметь все и быть ": 4580,
      ". Принимать ": 4581,
      "?\nОтвет: Истинная дружба не бо": 4582,
      "кладыва": 4583,
      "PostResponse": 4584,
      "Вопрос: Можно ли жить ": 4585,
      "Вопрос: В каком возрасте приходит ": 4586,
      "dential": 4587,
      "враг, а ": 4588,
      "пить я": 4589,
      "языке ": 4590,
      "процесс": 4591,
      "ability ": 4592,
      "():\n    '''": 4593,
      ": {e}')\n            ": 4594,
      "present": 4595,
      "edit_menu.add_command(label='": 4596,
      "publication": 4597,
      ". Лучший с": 4598,
      "становимся ": 4599,
      "становишься ": 4600,
      "Model": 4601,
      "SELE": 4602,
      "Strategy": 4603,
      "Test": 4604,
      "_id = db.add_": 4605,
      "шкафу": 4606,
      "этих ": 4607,
      "несчастным, ": 4608,
      "документа": 4609,
      ", а способ путешестви": 4610,
      "шифрова": 4611,
      "ности, любви": 4612,
      "чувствами ": 4613,
      "притяги": 4614,
      "одиночества": 4615,
      "Вопрос: Как научиться доверять ": 4616,
      "self.get_current_text_widget().": 4617,
      "внутреннее состояние, которое ": 4618,
      "Process": 4619,
      "NOT NUL": 4620,
      "подарок себе": 4621,
      "self.collections[": 4622,
      "time = time.time()\n        ": 4623,
      "elif ": 4624,
      "длитель": 4625,
      "зерка": 4626,
      "ого мне": 4627,
      "очеред": 4628,
      ", с которой ": 4629,
      "пространство": 4630,
      "search": 4631,
      "покой": 4632,
      "technolo": 4633,
      "винить себя ": 4634,
      "видишь ": 4635,
      "getenv('": 4636,
      "разруш": 4637,
      "Вопрос: Почему с": 4638,
      "heart": 4639,
      "suppor": 4640,
      "вопросы: 'Что ": 4641,
      "?\nОтвет: Страх перед будущим ": 4642,
      "Вопрос: Что-то я не могу найти ": 4643,
      "чувствовать себя счастливым": 4644,
      "central ": 4645,
      "analyz": 4646,
      "Circu": 4647,
      "GPS ": 4648,
      "ORD": 4649,
      "grow": 4650,
      ", text='": 4651,
      "relativ": 4652,
      "напоить ": 4653,
      "в нашем ": 4654,
      "мечты": 4655,
      "работы с ": 4656,
      "менять мир — достаточно ": 4657,
      "быть собой ": 4658,
      "шанс ее ": 4659,
      "question": 4660,
      "м. Мудрость ": 4661,
      "лучшие иде": 4662,
      ". В тишине рождаются ": 4663,
      ". Внешняя ": 4664,
      "говорит правду": 4665,
      "self._queue.": 4666,
      "искусственный интеллек": 4667,
      "connect(self.db_name": 4668,
      "open_file": 4669,
      "await asyncio.sleep(": 4670,
      "правильно ": 4671,
      "Вопрос: Существует ли ": 4672,
      "глубже, ": 4673,
      "?\nОтвет: Любовь к себе — это ": 4674,
      ". Быть тем, кто в": 4675,
      "English": 4676,
      "вдохновля": 4677,
      "3.connect(self.db_name": 4678,
      "Calculator": 4679,
      "Service": 4680,
      "niques ": 4681,
      "s': ['": 4682,
      "улыб": 4683,
      "е нельзя изменить, но ": 4684,
      "мост между с": 4685,
      "— и чувствовать себя счастливым": 4686,
      "— редкий дар": 4687,
      "metric ": 4688,
      "принци": 4689,
      "', padx=2": 4690,
      "molecules ": 4691,
      "Вопрос: Ты видел, куда ": 4692,
      ". Не обязательно менять мир — достаточно ": 4693,
      "внутренний судья": 4694,
      ". Друг ": 4695,
      "готовка и действи": 4696,
      "всегда есть шанс ее ": 4697,
      "ep learning ": 4698,
      "len(arr) ": 4699,
      "'''\n        with self.get_cursor() as ": 4700,
      "status_bar.config(": 4701,
      "проблем, а умение ": 4702,
      "эмоциональ": 4703,
      "failure_threshold": 4704,
      "— она может спать, но всегда есть шанс ее ": 4705,
      "?\nОтвет: Идеальных родителей ": 4706,
      "олько из полной чаши ": 4707,
      "self.calc.": 4708,
      "боимся не ": 4709,
      "(toolbar, text='": 4710,
      "- система ": 4711,
      ".HTTP_4": 4712,
      "=os.getenv('": 4713,
      "BaseModel": 4714,
      "FROM ": 4715,
      "Syste": 4716,
      "Чувства ": 4717,
      "аромат ": 4718,
      "бизнес": 4719,
      "опера": 4720,
      "означает ": 4721,
      "о. Разбер": 4722,
      ": что самое страш": 4723,
      "продук": 4724,
      "прошедшая ": 4725,
      "нашего ": 4726,
      "отрудни": 4727,
      "в лицо. Разбер": 4728,
      "в худш": 4729,
      "— посмотреть в лицо. Разбер": 4730,
      "не готовые ответы": 4731,
      "tion(\n            status_code=status": 4732,
      ", а задавай ": 4733,
      "для другого ": 4734,
      "Пользова": 4735,
      "provides ": 4736,
      "ression ": 4737,
      "от чужого мне": 4738,
      "make_sound": 4739,
      "праведливо": 4740,
      "шее лекарство — ": 4741,
      "ют', постепенно ": 4742,
      "?\nОтвет: Прошлое нельзя изменить, но ": 4743,
      ". Держать обиду — ": 4744,
      "только физическая": 4745,
      ". Научиться быть с собой ": 4746,
      ". Как сказал ": 4747,
      "восстановить ": 4748,
      "тся вместе с деть": 4749,
      "utton(toolbar, text='": 4750,
      "ExternalService": 4751,
      "\nfrom datetime import datetime": 4752,
      ",\n            detail='": 4753,
      ") as conn:\n            cursor = conn.cursor()\n            ": 4754,
      "внешних услови": 4755,
      "sample_user_data": 4756,
      "разумом и чувствами ": 4757,
      "raise HTTPException(\n            status_code=status": 4758,
      "красота идет изнутри ": 4759,
      "анархия, а ": 4760,
      "'''\n        with sqlite3.connect(self.db_name": 4761,
      ").pack(side='": 4762,
      "?\nОтвет: Баланс между разумом и чувствами ": 4763,
      "?\nОтвет: Истинная дружба не боится ": 4764,
      ". Лучший способ ": 4765,
      "SELECT ": 4766,
      "NOT NULL,\n                    ": 4767,
      ". Не обязательно менять мир — достаточно не дать миру ": 4768,
      "'''\n        with self.get_cursor() as cur": 4769,
      "status_bar.config(text": 4770,
      "олько из полной чаши можно ": 4771,
      "=os.getenv('DB_": 4772,
      "не готовые ответы, а задавай ": 4773,
      "?\nОтвет: Прошлое нельзя изменить, но можно изменить ": 4774,
      "raise HTTPException(\n            status_code=status.HTTP_4": 4775,
      "'''\n        with sqlite3.connect(self.db_name) as conn:\n            cursor = conn.cursor()\n            ": 4776,
      " - ": 4777,
      " или ": 4778,
      " делать ": 4779,
      " NOT ": 4780,
      " напоить ": 4781,
      "\"]": 4782,
      "'}": 4783,
      "' in ": 4784,
      "') as ": 4785,
      "',\n    ": 4786,
      "(A": 4787,
      "(S": 4788,
      "(cl": 4789,
      "(int, ": 4790,
      "(BaseModel": 4791,
      "),\n    ": 4792,
      "* (": 4793,
      "+= 1": 4794,
      ".append(": 4795,
      "0 ": 4796,
      "0]": 4797,
      "0.5": 4798,
      "2 ": 4799,
      "2) ": 4800,
      "3D": 4801,
      "3) ": 4802,
      "4) ": 4803,
      "5 ": 4804,
      "8') as ": 4805,
      "=0": 4806,
      "=f'": 4807,
      "=True": 4808,
      ">', lambda e: self.": 4809,
      "AT": 4810,
      "ATP": 4811,
      "Auth": 4812,
      "BL": 4813,
      "Button(toolbar, text='": 4814,
      "CO": 4815,
      "Cr": 4816,
      "Dep": 4817,
      "EX": 4818,
      "Email": 4819,
      "F_": 4820,
      "Fact": 4821,
      "Fast": 4822,
      "F NOT ": 4823,
      "HAL": 4824,
      "IST": 4825,
      "IF NOT ": 4826,
      "Ob": 4827,
      "PR": 4828,
      "SM": 4829,
      "Se": 4830,
      "T_": 4831,
      "TIM": 4832,
      "VAL": 4833,
      "[\"": 4834,
      "[0]": 4835,
      "] = ": 4836,
      "_h": 4837,
      "_stat": 4838,
      "_typ": 4839,
      "_model": 4840,
      "_database": 4841,
      "aro": 4842,
      "am ": 4843,
      "ample": 4844,
      "air ": 4845,
      "br": 4846,
      "by": 4847,
      "bs ": 4848,
      "bacter": 4849,
      "can": 4850,
      "cro": 4851,
      "city": 4852,
      "dic": 4853,
      "et": 4854,
      "go": 4855,
      "gre": 4856,
      "giv": 4857,
      "gland": 4858,
      "her": 4859,
      "har": 4860,
      "how ": 4861,
      "happ": 4862,
      "hape": 4863,
      "im": 4864,
      "ire": 4865,
      "ission": 4866,
      "imal": 4867,
      "ju": 4868,
      "jour": 4869,
      "know": 4870,
      "l='": 4871,
      "mmen": 4872,
      "og": 4873,
      "os": 4874,
      "ose ": 4875,
      "off": 4876,
      "over ": 4877,
      "oice ": 4878,
      "pres": 4879,
      "put": 4880,
      "piv": 4881,
      "pplication": 4882,
      "sin": 4883,
      "sing": 4884,
      "sid": 4885,
      "sses ": 4886,
      "s), and ": 4887,
      "smal": 4888,
      "s'])\nasync def ": 4889,
      "tter": 4890,
      "ures": 4891,
      "vic": 4892,
      "ves": 4893,
      "vous ": 4894,
      "wer ": 4895,
      "y_id, '": 4896,
      "{}": 4897,
      "{\n            ": 4898,
      "| С": 4899,
      "}с": 4900,
      "}: {": 4901,
      "Ан": 4902,
      "Авто": 4903,
      "Все ": 4904,
      "Дер": 4905,
      "Зна": 4906,
      "Им": 4907,
      "Ко": 4908,
      "Ма": 4909,
      "Мне ": 4910,
      "Мы ": 4911,
      "Не ": 4912,
      "Нов": 4913,
      "ООП": 4914,
      "Осознание конечности заставляет ценить ": 4915,
      "Прав": 4916,
      "Статисти": 4917,
      "Та": 4918,
      "Тек": 4919,
      "Шучу": 4920,
      "ап": 4921,
      "ат": 4922,
      "б-": 4923,
      "бра": 4924,
      "бу ": 4925,
      "ббот": 4926,
      "вно ": 4927,
      "влюб": 4928,
      "вита": 4929,
      "вление ": 4930,
      "впечат": 4931,
      "гре": 4932,
      "дис": 4933,
      "е-": 4934,
      "емы": 4935,
      "ера ": 4936,
      "е, как ": 4937,
      "жу": 4938,
      "жде": 4939,
      "зо": 4940,
      "зви": 4941,
      "зако": 4942,
      "зву": 4943,
      "ил": 4944,
      "ими ": 4945,
      "исти": 4946,
      "йн": 4947,
      "ке": 4948,
      "кре": 4949,
      "к.</s>": 4950,
      "ква": 4951,
      "кова": 4952,
      "лы ": 4953,
      "л'''\n        ": 4954,
      "л со": 4955,
      "лгорит": 4956,
      "мение ": 4957,
      "нно": 4958,
      "ну ": 4959,
      "нной ": 4960,
      "оль": 4961,
      "оча": 4962,
      "ологи": 4963,
      "опти": 4964,
      "плы": 4965,
      "ре ": 4966,
      "риз": 4967,
      "рти": 4968,
      "рный ": 4969,
      "сеть ": 4970,
      "справля": 4971,
      "способность ": 4972,
      "ских ": 4973,
      "тру": 4974,
      "това": 4975,
      "трет": 4976,
      "тяги": 4977,
      "уж": 4978,
      "уз": 4979,
      "уш": 4980,
      "уя": 4981,
      "уть ": 4982,
      "ума": 4983,
      "уси": 4984,
      "управля": 4985,
      "уголо": 4986,
      "фо": 4987,
      "хоте": 4988,
      "ц: '": 4989,
      "че ": 4990,
      "чни": 4991,
      "чность": 4992,
      "чного ": 4993,
      "читься ": 4994,
      "чья ": 4995,
      "шта": 4996,
      "шения": 4997,
      "шения ": 4998,
      "щу": 4999,
      "щит": 5000,
      "щен": 5001,
      "ъяс": 5002,
      "ыми ": 5003,
      "эти ": 5004,
      "этой ": 5005,
      "ю.</s>": 5006,
      "юсь ": 5007,
      "ясь ": 5008,
      "ятся ": 5009,
      "🚀 ": 5010,
      ", не": 5011,
      ", вто": 5012,
      ", без ": 5013,
      ", вот ": 5014,
      ", tags=['": 5015,
      ", таких ": 5016,
      ", чья ": 5017,
      ": с ": 5018,
      ": проща": 5019,
      "е в ": 5020,
      "е или ": 5021,
      "о расход": 5022,
      "ет, что ": 5023,
      "нит": 5024,
      "низа": 5025,
      "нию ": 5026,
      "ними ": 5027,
      "нии, ": 5028,
      "ничего ": 5029,
      ". E": 5030,
      ". H": 5031,
      ". Э": 5032,
      ". Ты ": 5033,
      ". За": 5034,
      ". Любовь ": 5035,
      ". Шучу": 5036,
      "и рас": 5037,
      "и страх": 5038,
      "я в ": 5039,
      "проя": 5040,
      "прове": 5041,
      "прокладыва": 5042,
      "расту": 5043,
      "расти ": 5044,
      "ракти": 5045,
      "а и ": 5046,
      "а к ": 5047,
      "нося": 5048,
      "ному ": 5049,
      "но?\nОтвет: Смысл в том, чтобы пройти ": 5050,
      "\n        for ": 5051,
      "\n        results = ": 5052,
      "in, ": 5053,
      "infe": 5054,
      "info": 5055,
      "invol": 5056,
      "internal ": 5057,
      "inher": 5058,
      "ветер": 5059,
      "s - ": 5060,
      "s through ": 5061,
      "s include: ": 5062,
      "Вопрос: Ну": 5063,
      "red": 5064,
      "ree": 5065,
      "rest": 5066,
      "remo": 5067,
      "read": 5068,
      "redu": 5069,
      "reaction": 5070,
      "reproduction": 5071,
      "?\nОтвет: Б": 5072,
      "?\nОтвет: Е": 5073,
      "?\nОтвет: Т": 5074,
      "?\nОтвет: За": 5075,
      "?\nОтвет: Ра": 5076,
      "?\nОтвет: Я ": 5077,
      "?\nОтвет: Род": 5078,
      "реду": 5079,
      "рения ": 5080,
      "резу": 5081,
      "пост": 5082,
      "побе": 5083,
      "посту": 5084,
      "получа": 5085,
      "пойм": 5086,
      "ть настоящее.</s>": 5087,
      "над": 5088,
      "навы": 5089,
      "нами ": 5090,
      "настро": 5091,
      "наследова": 5092,
      "нагруз": 5093,
      "направление ": 5094,
      "отда": 5095,
      " счасть": 5096,
      "овор": 5097,
      "ак со": 5098,
      "акие ": 5099,
      "чемо": 5100,
      "чество": 5101,
      "ank": 5102,
      "ansp": 5103,
      "й для ": 5104,
      "oro": 5105,
      "end ": 5106,
      "end_": 5107,
      "encod": 5108,
      "ero": 5109,
      "ering ": 5110,
      "ers to ": 5111,
      "ите ": 5112,
      "ит с ": 5113,
      "\n    }": 5114,
      "воде ": 5115,
      "вокру": 5116,
      "stance ": 5117,
      "неде": 5118,
      "ервер": 5119,
      "вали ": 5120,
      "ваться ": 5121,
      "льно": 5122,
      "льные ": 5123,
      "льстит": 5124,
      "м — ": 5125,
      "ных": 5126,
      "ных с": 5127,
      "в жизни": 5128,
      "в труд": 5129,
      "мора": 5130,
      "мой с": 5131,
      "дале": 5132,
      "— они ": 5133,
      "— настоящая": 5134,
      "th ": 5135,
      "three ": 5136,
      "alle": 5137,
      "ally": 5138,
      "all ": 5139,
      "ение. ": 5140,
      "не за": 5141,
      "не иметь ": 5142,
      "изу": 5143,
      "из-за ": 5144,
      "обно ": 5145,
      "обще": 5146,
      "обход": 5147,
      "обнов": 5148,
      "ках": 5149,
      "каждая ": 5150,
      "капли": 5151,
      "код": 5152,
      "коли": 5153,
      "кой.</s>": 5154,
      "кого-то ": 5155,
      "self):\n        '''": 5156,
      "тей": 5157,
      "теку": 5158,
      "тесты ": 5159,
      "рия ": 5160,
      "ри. Д": 5161,
      "ary_": 5162,
      "dete": 5163,
      "deli": 5164,
      "ет уверен": 5165,
      "ет под ": 5166,
      "ет внима": 5167,
      "ет маршрут": 5168,
      "ет — есть ": 5169,
      "лад": 5170,
      "токо": 5171,
      "заня": 5172,
      "забыть ": 5173,
      "застре": 5174,
      "одер": 5175,
      "одни ": 5176,
      "одина": 5177,
      "руб": 5178,
      "рую ": 5179,
      "ings, ": 5180,
      "ing='": 5181,
      "дере": 5182,
      "демо": 5183,
      "= [": 5184,
      "чай": 5185,
      "чах": 5186,
      "часов": 5187,
      "mechan": 5188,
      "copy": 5189,
      "лида": 5190,
      "ли, что ": 5191,
      "стан": 5192,
      "стали ": 5193,
      "стань ": 5194,
      "миру": 5195,
      ")\n        \n        return ": 5196,
      "Как кру": 5197,
      "y and ": 5198,
      "y to ": 5199,
      "на языке ": 5200,
      "ing и ": 5201,
      "тить ": 5202,
      "тиры": 5203,
      "ace ": 5204,
      "acci": 5205,
      "ть, как ": 5206,
      "любо": 5207,
      "Вопрос: Как восстановить ": 5208,
      "выбо": 5209,
      "вы скаж": 5210,
      "прият": 5211,
      "приносит ": 5212,
      "прихоже": 5213,
      "сегда ": 5214,
      "себе ": 5215,
      "сел'''\n        ": 5216,
      "легко ": 5217,
      "лежат ": 5218,
      "с человеком ты ": 5219,
      "с первого ": 5220,
      "id': ": 5221,
      "user(self, ": 5222,
      "user in ": 5223,
      "users.": 5224,
      "user(user_id": 5225,
      "дух": 5226,
      "ational ": 5227,
      "ation, and ": 5228,
      "это она.</s>": 5229,
      "веси": 5230,
      "вести": 5231,
      "вечно, ": 5232,
      "веб-": 5233,
      ", а то, что ты ": 5234,
      ", а того, что ": 5235,
      ", к ": 5236,
      "- 1": 5237,
      "- start_": 5238,
      "condi": 5239,
      "conn = ": 5240,
      "transp": 5241,
      "быт, ": 5242,
      "ate_": 5243,
      "бере": 5244,
      "беско": 5245,
      "Вопрос: Что вы ": 5246,
      "Вопрос: Что вы скаж": 5247,
      "il ": 5248,
      "ляции": 5249,
      "лужени": 5250,
      "und ": 5251,
      "ную с": 5252,
      "знать ": 5253,
      "знаешь, ": 5254,
      "lif": 5255,
      "Полу": 5256,
      "Последователь": 5257,
      "):\n                ": 5258,
      "):\n        self._": 5259,
      "разви": 5260,
      "разум": 5261,
      "разными ": 5262,
      "proto": 5263,
      "proof-": 5264,
      "proble": 5265,
      "provid": 5266,
      "таре": 5267,
      "танц": 5268,
      "таблиц": 5269,
      "там, где ": 5270,
      "мень": 5271,
      "chil": 5272,
      "куп": 5273,
      "ку.</s>": 5274,
      "', response": 5275,
      "', encod": 5276,
      "loc": 5277,
      "lobe ": 5278,
      "t_docu": 5279,
      "расцвета": 5280,
      "cur.fetch": 5281,
      "пам": 5282,
      "пах": 5283,
      "пада": 5284,
      "\n\ndef ": 5285,
      "es and ": 5286,
      "s, with ": 5287,
      "от изо": 5288,
      "любв": 5289,
      "abstr": 5290,
      "net ": 5291,
      "neural ": 5292,
      ", но с ": 5293,
      ", но можем выбра": 5294,
      "уди": 5295,
      "return result": 5296,
      "s. I": 5297,
      "s. S": 5298,
      "s. Осознание конечности заставляет ценить ": 5299,
      "ка при": 5300,
      "ка - ": 5301,
      "make ": 5302,
      "л в ": 5303,
      "\n                self.": 5304,
      "— это свет": 5305,
      ", пока ": 5306,
      ", под ": 5307,
      ", помога": 5308,
      ", помочь ": 5309,
      "чик ": 5310,
      "чисел'''\n        ": 5311,
      "cls.": 5312,
      "свой": 5313,
      "is a ": 5314,
      "is None": 5315,
      "ход к ": 5316,
      "страсти ": 5317,
      "ние души ": 5318,
      "aph": 5319,
      "appro": 5320,
      "expl": 5321,
      "example": 5322,
      ". Это когда ": 5323,
      "мысли, ": 5324,
      "ght, ": 5325,
      "vig": 5326,
      "быть стары": 5327,
      "шаг ": 5328,
      "ния - это ": 5329,
      "fibon": 5330,
      "ется сегодня": 5331,
      "пуст": 5332,
      "рования ": 5333,
      "м, сделать ": 5334,
      "м, трудностя": 5335,
      "')\n    \n    ": 5336,
      "ous. Осознание конечности заставляет ценить ": 5337,
      "\n    \n    def process_": 5338,
      "()\n    \n    ": 5339,
      "()\n\n# ": 5340,
      "е. С": 5341,
      "е. Те": 5342,
      "нными ": 5343,
      "предо": 5344,
      "преуве": 5345,
      "преобразова": 5346,
      "! С": 5347,
      "! На": 5348,
      "диоз": 5349,
      "дирек": 5350,
      "')\n        self.": 5351,
      " = Database": 5352,
      "всего": 5353,
      "всегда": 5354,
      "cip": 5355,
      "графи": 5356,
      "итера": 5357,
      "итесь ": 5358,
      "ность и ": 5359,
      "\n            \n            ": 5360,
      "es.</s>": 5361,
      "creating ": 5362,
      "хологи": 5363,
      "делась ": 5364,
      ":\n            if ": 5365,
      "чит то, что ": 5366,
      "тери": 5367,
      "возможно ": 5368,
      "data ": 5369,
      "ush": 5370,
      "usion": 5371,
      "жает ": 5372,
      "цеп": 5373,
      "цели": 5374,
      "box": 5375,
      ". С ": 5376,
      ". Счастье — не ": 5377,
      ". Со временем ": 5378,
      ". Самые ": 5379,
      "compression ": 5380,
      "бал": 5381,
      "базы ": 5382,
      ". Он ": 5383,
      ". Основ": 5384,
      "=' * ": 5385,
      "head": 5386,
      "post_id": 5387,
      "правка ": 5388,
      "feature ": 5389,
      "мы — ": 5390,
      "мы дела": 5391,
      ": {message": 5392,
      "ation work?\nОтвет: ": 5393,
      "ation uses ": 5394,
      "ния. Но ": 5395,
      "мую ": 5396,
      "тран": 5397,
      "жно ли ": 5398,
      "тельство": 5399,
      "result ": 5400,
      "result.": 5401,
      "й сле": 5402,
      "for user in ": 5403,
      ")\n            '''": 5404,
      "можно по ": 5405,
      "можно не иметь ": 5406,
      "полностью ": 5407,
      "print(f'{": 5408,
      "print(f'\\\\n": 5409,
      "is_": 5410,
      "ism": 5411,
      "istic ": 5412,
      "file_menu.add_command(label='": 5413,
      "Настрой": 5414,
      "внутри. Д": 5415,
      "как чемо": 5416,
      "через быт, ": 5417,
      "мерти": 5418,
      "ment, ": 5419,
      "mental ": 5420,
      "м. Т": 5421,
      "подготовка и действи": 5422,
      "content ": 5423,
      "get_multiplier": 5424,
      "plan": 5425,
      "test_data": 5426,
      "processes ": 5427,
      "в су": 5428,
      "в сво": 5429,
      "твоим ": 5430,
      "ится дале": 5431,
      "ться и ": 5432,
      "current ": 5433,
      "irth": 5434,
      "?\nОтвет: Протоко": 5435,
      "print('=' * ": 5436,
      "', 'end": 5437,
      "его вла": 5438,
      ". Иногда ": 5439,
      " собой ": 5440,
      "важное ": 5441,
      "важные ": 5442,
      "хранять ": 5443,
      "родиться": 5444,
      "стью": 5445,
      "конф": 5446,
      "контекст": 5447,
      "иться о ": 5448,
      "отношение к ": 5449,
      "force": 5450,
      "form ": 5451,
      "waste": 5452,
      "ет смысл": 5453,
      "ни один ": 5454,
      "answer": 5455,
      "комна": 5456,
      "компа": 5457,
      "комфор": 5458,
      "видится ": 5459,
      "['username": 5460,
      "глупы": 5461,
      "ll ": 5462,
      "где мы ": 5463,
      "где можно ": 5464,
      "где родиться": 5465,
      "ity, ": 5466,
      "id INTEG": 5467,
      "item ": 5468,
      "бира": 5469,
      "?\nОтвет: От": 5470,
      " самые ": 5471,
      ", а не в ": 5472,
      "None\n    \n    def ": 5473,
      "м и глупы": 5474,
      "\n\n# Демонстрация ": 5475,
      "previ": 5476,
      "particles ": 5477,
      "спеш": 5478,
      "s = len(content": 5479,
      "?\nОтвет: Ка": 5480,
      "achine ": 5481,
      "менедж": 5482,
      ". Надо ": 5483,
      "processing": 5484,
      "process_data": 5485,
      "throughout ": 5486,
      "ты.</s>": 5487,
      "ется, но не ": 5488,
      "понимании": 5489,
      " созда": 5490,
      ", который вы": 5491,
      ", который нужно ": 5492,
      "what ": 5493,
      "ействи": 5494,
      "ей, помочь ": 5495,
      "чно.</s>": 5496,
      "итация ": 5497,
      "восприя": 5498,
      "воспита": 5499,
      "book('": 5500,
      "filter": 5501,
      "file = ": 5502,
      "fill='": 5503,
      "ке с ": 5504,
      "s (\n                    ": 5505,
      "зависеть ": 5506,
      "делся ": 5507,
      "дело расход": 5508,
      "мире ": 5509,
      "думаете о ": 5510,
      "самосохранение": 5511,
      ")\n    return ": 5512,
      "T IN": 5513,
      "первую ": 5514,
      "get('1.0": 5515,
      "других, ": 5516,
      "cursor.execute('''\n                ": 5517,
      "щее созда": 5518,
      "lymp": 5519,
      "utf-": 5520,
      "вместо ": 5521,
      "ть, где родиться": 5522,
      "крыля": 5523,
      "?\nОтвет: Ме": 5524,
      "?\nОтвет: Метод ": 5525,
      "честности ": 5526,
      "честным, ": 5527,
      "честности и ": 5528,
      "каждым ": 5529,
      ". Она как ": 5530,
      ". Она проверяется ": 5531,
      "ческие ": 5532,
      "path.": 5533,
      "} руб": 5534,
      ". У ": 5535,
      ". Учиться ": 5536,
      ". Узнать ": 5537,
      "?\nОтвет: Да, с ": 5538,
      "?\nОтвет: Да, он ": 5539,
      "года ": 5540,
      "recommen": 5541,
      "NoSQL": 5542,
      "UserData": 5543,
      "email']": 5544,
      "будь ": 5545,
      "будет ": 5546,
      "дых": 5547,
      "метри": 5548,
      "ника.</s>": 5549,
      "ние, внутренняя ": 5550,
      ". Его ": 5551,
      "даже когда ": 5552,
      "groups": 5553,
      "\nfrom typing ": 5554,
      "INSER": 5555,
      "aining ": 5556,
      "фика": 5557,
      "ющих": 5558,
      "находит са": 5559,
      "ведения": 5560,
      "принятии ": 5561,
      "принятии, ": 5562,
      "}')\n                ": 5563,
      "}')\n        \n        # ": 5564,
      "внешнее ": 5565,
      "внешнего ": 5566,
      ". Мудрость ": 5567,
      "?\nОтвет: Пре": 5568,
      "?\nОтвет: Любовь": 5569,
      "?\nОтвет: Любовь, ": 5570,
      "моменту": 5571,
      "момент не ": 5572,
      ") -> float": 5573,
      ") -> List[": 5574,
      "except": 5575,
      "действие, а не ": 5576,
      "Cont": 5577,
      "Trans": 5578,
      "but ": 5579,
      "binary_": 5580,
      "наша ": 5581,
      "— не обязательно ": 5582,
      "cellular ": 5583,
      "try:\n                ": 5584,
      "может быть ": 5585,
      "счастливее": 5586,
      "messagebox": 5587,
      "crac": 5588,
      "host": 5589,
      "home": 5590,
      "min_": 5591,
      "автомат": 5592,
      "детей, помочь ": 5593,
      "доверие ": 5594,
      "ей и ": 5595,
      "ую сторо": 5596,
      "they ": 5597,
      "def __init__(self):\n        ": 5598,
      "теряет смысл": 5599,
      "types": 5600,
      "internet ": 5601,
      "Вопрос: Как отличить друга ": 5602,
      "user_list": 5603,
      "меняться.</s>": 5604,
      "меняется, но не ": 5605,
      "свобода начинается ": 5606,
      "computers ": 5607,
      "каждый день": 5608,
      "каждый находит са": 5609,
      "float)": 5610,
      "species": 5611,
      "s) and ": 5612,
      "уроки": 5613,
      "уроки, ": 5614,
      "name not in ": 5615,
      ". Это не значит ": 5616,
      "временем. ": 5617,
      "основе ": 5618,
      "доброты, ": 5619,
      "blood cell": 5620,
      ")\n\ndef ": 5621,
      "API ": 5622,
      "E TA": 5623,
      "E IF NOT ": 5624,
      "nervous ": 5625,
      "вяз": 5626,
      "жении.</s>": 5627,
      "книг": 5628,
      "книги": 5629,
      "обид, а можно ": 5630,
      "маленькое ": 5631,
      "организа": 5632,
      "virtual ": 5633,
      "поддерж": 5634,
      "documents": 5635,
      "использующий ": 5636,
      "ARY ": 5637,
      "ESTA": 5638,
      "cycle": 5639,
      "func": 5640,
      "ial recogni": 5641,
      "еще ": 5642,
      "проектирова": 5643,
      "прошлого": 5644,
      "но, признает ": 5645,
      "e = '": 5646,
      "выполнять ": 5647,
      "себе. В ": 5648,
      "нужна": 5649,
      "protein": 5650,
      "protein ": 5651,
      "response.": 5652,
      "гармонии ": 5653,
      "хорошие. Те": 5654,
      "тот, кто научи": 5655,
      "sletter": 5656,
      "сты с ": 5657,
      ". I'm ": 5658,
      ". Можно быть стары": 5659,
      "показывают направление, ": 5660,
      "итиру": 5661,
      "field ": 5662,
      "patterns, ": 5663,
      "творчестве. ": 5664,
      "без слов": 5665,
      ". Если бы ": 5666,
      ". Если с человеком ты ": 5667,
      "достоинства": 5668,
      "frame": 5669,
      "help": 5670,
      "water": 5671,
      "учимся ": 5672,
      "— свет": 5673,
      "— сердца": 5674,
      ", когда нужна": 5675,
      "information ": 5676,
      "reality (": 5677,
      "ней пол": 5678,
      "извлекать ": 5679,
      "тебе интерес": 5680,
      "newsletter": 5681,
      "body ": 5682,
      "ческое ": 5683,
      "ческой ": 5684,
      "ческого ": 5685,
      "test_add_": 5686,
      ". Настоящая ": 5687,
      ". Настоящий друг ": 5688,
      "grav": 5689,
      "oxid": 5690,
      "Паттер": 5691,
      "есть, но ": 5692,
      "?\nОтвет: Алгорит": 5693,
      "позволять ": 5694,
      "позволяет ": 5695,
      "над отношения": 5696,
      "ками, но ": 5697,
      "достижени": 5698,
      "приходит не ": 5699,
      "мелости ": 5700,
      "мелочах": 5701,
      "голос": 5702,
      "complex ": 5703,
      "лучше.</s>": 5704,
      "?\nОтвет: Прощение — это ": 5705,
      "db.add_book('": 5706,
      "стройство, ": 5707,
      "?\nОтвет: Истинная красота идет изнутри ": 5708,
      "?\nОтвет: Настоящая любовь — ": 5709,
      "достаточно хорошие. Те": 5710,
      "Вопрос: Зачем нуж": 5711,
      "?\nОтвет: Смысл жизни каждый находит са": 5712,
      "-1c": 5713,
      "os.path.": 5714,
      "volu": 5715,
      "встреча ": 5716,
      "глаза": 5717,
      "пробуй ": 5718,
      "потребностя": 5719,
      "изменения ": 5720,
      "кофе, ": 5721,
      ")\n        self.assert": 5722,
      "доступа к ": 5723,
      "ортировку": 5724,
      "медлен": 5725,
      ", но и эмоциональ": 5726,
      ", позволяющий ": 5727,
      ", позволяющая ": 5728,
      "producer": 5729,
      "producing ": 5730,
      "?\nОтвет: Использова": 5731,
      "?\nОтвет: Искусство ": 5732,
      "?\nОтвет: Конечно! ": 5733,
      "рождаются из неизвест": 5734,
      "ющие е": 5735,
      "validate_": 5736,
      "?\nОтвет: Свобода воли есть, но ": 5737,
      "text_widget.get('1.0": 5738,
      ". Лучшее лекарство — ": 5739,
      "Comm": 5740,
      "merge": 5741,
      "ttk.Button(toolbar, text='": 5742,
      "Привет": 5743,
      "какие ": 5744,
      "attach": 5745,
      "left', padx=2": 5746,
      "demo_": 5747,
      "том, что ": 5748,
      "temper": 5749,
      "Вопрос: Как вам представля": 5750,
      "Вопрос: Как вам видится ": 5751,
      "природо": 5752,
      "годами": 5753,
      "шифрование": 5754,
      "верхней пол": 5755,
      "else:\n            ": 5756,
      "хочешь ": 5757,
      "хочешь": 5758,
      "добрый сле": 5759,
      "collection_name]": 5760,
      "collection_name, ": 5761,
      "transaction_h": 5762,
      ")\n```</s>": 5763,
      "===')\n": 5764,
      "Process ": 5765,
      "pack(fill='": 5766,
      "OPEN'": 5767,
      "datetime.now().": 5768,
      "зависит от внешних услови": 5769,
      "(**": 5770,
      "=None):\n        '''": 5771,
      "Create": 5772,
      "IMARY ": 5773,
      "factor": 5774,
      "pay(self, amount": 5775,
      "Каждая ": 5776,
      "ошибо": 5777,
      "ошиба": 5778,
      "ится.</s>": 5779,
      "ваются, ": 5780,
      "масшта": 5781,
      "?\nОтвет: Система ": 5782,
      "api_url": 5783,
      "extre": 5784,
      "notification_typ": 5785,
      "цель, а способ путешестви": 5786,
      "человеческих ": 5787,
      "control ": 5788,
      "людям ": 5789,
      "ственная часть цикла": 5790,
      "blockchain ": 5791,
      ". Каждый ": 5792,
      "calculator.": 5793,
      "должны ": 5794,
      "хорошее.</s>": 5795,
      ". Такая дружба — редкий дар": 5796,
      "находить радость ": 5797,
      "computer vision": 5798,
      "в повседневности": 5799,
      "в повседневности ": 5800,
      "можем выбрать, где родиться": 5801,
      "взаимодей": 5802,
      "Вопрос: Во сколько завтра выез": 5803,
      "умении радоваться ": 5804,
      "?', 'Без ": 5805,
      "These ": 5806,
      "hypo": 5807,
      "microwa": 5808,
      "targe": 5809,
      "абсолю": 5810,
      "ем, принима": 5811,
      "клиен": 5812,
      "оно внутри. Д": 5813,
      "услышать ": 5814,
      "х, а в ": 5815,
      "чета": 5816,
      "enables ": 5817,
      "ман', 18": 5818,
      "Вопрос: Как вы относ": 5819,
      "converts ": 5820,
      "Вопрос: Что для вас есть ": 5821,
      "position ": 5822,
      "mock_ser": 5823,
      "direct": 5824,
      "е. Она не ": 5825,
      "прекрасно": 5826,
      "(self, message):\n        ": 5827,
      "for i in range(": 5828,
      "компьютер": 5829,
      "precious. Осознание конечности заставляет ценить ": 5830,
      "ER BY ": 5831,
      "— это не отсутствие проблем, а умение ": 5832,
      "разум прокладыва": 5833,
      "update(": 5834,
      "исчезает": 5835,
      "coffee_level": 5836,
      "signals. ": 5837,
      "Вопрос: Что значит быть свободным от ": 5838,
      "behavior": 5839,
      "?, ?, ": 5840,
      "@app.get('": 5841,
      "CREAT": 5842,
      "TO ": 5843,
      "UES (": 5844,
      "breath": 5845,
      "join": 5846,
      "number": 5847,
      "occur": 5848,
      "Роман', 18": 5849,
      "главное - ": 5850,
      "естественная часть цикла": 5851,
      "крип": 5852,
      "осуждения": 5853,
      "психологи": 5854,
      "уважать ": 5855,
      "учатся вместе с деть": 5856,
      ". Хоче": 5857,
      "противо": 5858,
      "indent": 5859,
      "reward": 5860,
      "порт": 5861,
      "полиморфиз": 5862,
      "отличать ": 5863,
      "нейро": 5864,
      "дан: можно ": 5865,
      "еньги ": 5866,
      "рисков": 5867,
      "запах ": 5868,
      "мимолё": 5869,
      "account.": 5870,
      "привлекает внима": 5871,
      "голова ": 5872,
      "более ": 5873,
      "разговор с ": 5874,
      "щедро напоить ": 5875,
      "переплет": 5876,
      "жили вечно, ": 5877,
      "Вопрос: Ты помнишь, ": 5878,
      "баланс": 5879,
      "velop": 5880,
      "все равно что ": 5881,
      "content = text_widget.get('1.0": 5882,
      "осмыслен": 5883,
      "?\nОтвет: Программа, ": 5884,
      "processor.process_": 5885,
      "material": 5886,
      "должен быть ": 5887,
      "electromagnetic ": 5888,
      ": str) -> Optional[": 5889,
      ". Прошлое — как чемо": 5890,
      "анализи": 5891,
      "по-разному": 5892,
      "PaymentStrategy": 5893,
      "мудрец: '": 5894,
      "без совести?\nОтвет: Совесть — ": 5895,
      "sql_database": 5896,
      "испытание быто": 5897,
      "богатство ": 5898,
      "теряют ориента": 5899,
      "оставляя шра": 5900,
      "Вопрос: Есть ли свобода воли в ": 5901,
      "don't have ": 5902,
      "отравлять настоящее.</s>": 5903,
      "эгоизм, а самосохранение": 5904,
      "ограниче": 5905,
      "setup_": 5906,
      "?\nОтвет: Смерть придает жизни ценность": 5907,
      "(а) ": 5908,
      "Manager": 5909,
      "gluco": 5910,
      "pipel": 5911,
      "vasya.": 5912,
      "Асинхронная ": 5913,
      "Давай ": 5914,
      "й. Можно иметь все и быть ": 5915,
      "оправда": 5916,
      "плохо": 5917,
      "спутника.</s>": 5918,
      "insert_docu": 5919,
      "воображении.</s>": 5920,
      "важно отличать ": 5921,
      "не существует — есть ": 5922,
      "капсу": 5923,
      "defen": 5924,
      "слишком ": 5925,
      "приговор ": 5926,
      "лечит, но не ": 5927,
      "tosynthesis ": 5928,
      "развити": 5929,
      "разница ": 5930,
      "change ": 5931,
      "границы, забот": 5932,
      ". Счастлив тот, кто научи": 5933,
      "height": 5934,
      "? Или ": 5935,
      ")\n            return cursor": 5936,
      "внутри — когда ": 5937,
      ". Идеал — когда ": 5938,
      ", кто любит безуслов": 5939,
      "характер": 5940,
      "['id']": 5941,
      ". Важно ": 5942,
      ". Вырастить ": 5943,
      "перестаешь зависеть ": 5944,
      "whiskers.": 5945,
      "идеалов": 5946,
      "Вопрос: В чем смысл жизни, если мы так ": 5947,
      "взять только ": 5948,
      "Вопрос: Как сделать ": 5949,
      "recovery_timeout": 5950,
      "ги на воде ": 5951,
      "был бы precious. Осознание конечности заставляет ценить ": 5952,
      "умение видеть су": 5953,
      "text_widget = self.get_current_text_widget(": 5954,
      ". Лечит то, что ": 5955,
      "по-настоящему ": 5956,
      "Запускаем ": 5957,
      ". Раны затяги": 5958,
      "Паралле": 5959,
      "враг, а естественная часть цикла": 5960,
      "publication_year": 5961,
      "Processor": 5962,
      "подарок себе. Держать обиду — ": 5963,
      "очередь ": 5964,
      "search(": 5965,
      "покойстви": 5966,
      "?\nОтвет: Страх перед будущим возника": 5967,
      "ORDER BY ": 5968,
      "growth": 5969,
      "быть собой без ": 5970,
      ". В тишине рождаются лучшие иде": 5971,
      "English ": 5972,
      "мост между сердцами": 5973,
      "— она может спать, но всегда есть шанс ее разбудить ": 5974,
      "Чувства показывают направление, ": 5975,
      "бизнес-": 5976,
      "в худшую сторо": 5977,
      "для другого — в ": 5978,
      "Пользователь ": 5979,
      "только физическая, но и эмоциональ": 5980,
      ").pack(side='left', padx=2": 5981,
      ". Не обязательно менять мир — достаточно не дать миру изменить ": 5982,
      "'''\n        with self.get_cursor() as cur:\n            cur": 5983,
      "status_bar.config(text=f'": 5984,
      "олько из полной чаши можно щедро напоить ": 5985,
      "не готовые ответы, а задавай вопросы: 'Что ": 5986,
      "?\nОтвет: Прошлое нельзя изменить, но можно изменить его вла": 5987,
      "(int, float)": 5988,
      "(BaseModel):\n    ": 5989,
      "BLE IF NOT ": 5990,
      "Crypto": 5991,
      "EXIST": 5992,
      "FastAPI": 5993,
      "HALF_": 5994,
      "Observer": 5995,
      "PRIMARY ": 5996,
      "TIMESTA": 5997,
      "VALUES (": 5998,
      "_model=": 5999,
      "city': '": 6000,
      "pressu": 6001,
      "pivo": 6002,
      "y_id, 'Роман', 18": 6003,
      "{\n            '": 6004,
      "Держи ": 6005,
      "Текстов": 6006,
      "бботу": 6007,
      "оптим": 6008,
      "треть": 6009,
      "уязви": 6010,
      "уголок ": 6011,
      ", чья душа ": 6012,
      ": прощаем, принима": 6013,
      ". Шучу! ": 6014,
      "inherit": 6015,
      "Вопрос: Нужно ли ": 6016,
      "?\nОтвет: Раз": 6017,
      "?\nОтвет: Родитель": 6018,
      "результа": 6019,
      "— они учатся вместе с деть": 6020,
      "— настоящая. Если с человеком ты ": 6021,
      "allel": 6022,
      "застревать ": 6023,
      "одинаков": 6024,
      "ing='utf-": 6025,
      "Как круги на воде ": 6026,
      "ть, как жить": 6027,
      "прихожей, ": 6028,
      "с первого взгля": 6029,
      "- start_time": 6030,
      "Вопрос: Что вы думаете о ": 6031,
      "Вопрос: Что вы скажете о ": 6032,
      "proof-of-": 6033,
      "', response_model=": 6034,
      "', encoding='utf-": 6035,
      "lobe (": 6036,
      "от изоляции": 6037,
      ", но можем выбрать, как жить": 6038,
      "— это свет ": 6039,
      "cls._in": 6040,
      "fibonacci": 6041,
      "преувели": 6042,
      "преобразования ": 6043,
      "итесь к ": 6044,
      ". Счастье — не цель, а способ путешестви": 6045,
      ": {message}": 6046,
      "можно не иметь ничего ": 6047,
      "Настройка ": 6048,
      "через быт, труд": 6049,
      "подготовка и действие. ": 6050,
      "print('=' * 50": 6051,
      "', 'end-1c": 6052,
      "ни один момент не ": 6053,
      "['username']": 6054,
      ", который нужно бере": 6055,
      "восприятия": 6056,
      "дело расходится дале": 6057,
      "T INTO ": 6058,
      "щее создается сегодня": 6059,
      "ние, внутренняя — сердца": 6060,
      "\nfrom typing import ": 6061,
      "INSERT INTO ": 6062,
      "?\nОтвет: Любовь, которая ": 6063,
      ") -> float:\n        '''": 6064,
      "действие, а не только чувство": 6065,
      "binary_search(": 6066,
      "меняется, но не исчезает": 6067,
      "name not in self.collections": 6068,
      "доброты, искрен": 6069,
      "E TABLE IF NOT ": 6070,
      ". Можно быть старым и глупы": 6071,
      "Паттерн ": 6072,
      ". Лучшее лекарство — подготовка и действие. ": 6073,
      "Вопрос: Как вам представляется ": 6074,
      "transaction_hist": 6075,
      "ваются, оставляя шра": 6076,
      "можем выбрать, где родиться, но можем выбрать, как жить": 6077,
      "умении радоваться моменту": 6078,
      "?', 'Без чего ": 6079,
      "абсолют": 6080,
      "оно внутри. Деньги ": 6081,
      "Вопрос: Как вы относитесь к ": 6082,
      "е. Она не враг, а естественная часть цикла": 6083,
      "разум прокладывает маршрут": 6084,
      "@app.get('/": 6085,
      "CREATE TABLE IF NOT ": 6086,
      "дан: можно тащить ": 6087,
      "привлекает внимание, внутренняя — сердца": 6088,
      "жили вечно, ни один момент не ": 6089,
      "content = text_widget.get('1.0', 'end-1c": 6090,
      ". Прошлое — как чемодан: можно тащить ": 6091,
      "insert_document(": 6092,
      "границы, заботиться о ": 6093,
      ". Счастлив тот, кто научился ": 6094,
      ", кто любит безусловно, признает ": 6095,
      "перестаешь зависеть от чужого мне": 6096,
      ". Лечит то, что мы дела": 6097,
      ". Раны затягиваются, оставляя шра": 6098,
      "Чувства показывают направление, разум прокладывает маршрут": 6099,
      "в худшую сторону": 6100,
      "EXISTS ": 6101,
      "PRIMARY KE": 6102,
      "TIMESTAM": 6103,
      "', encoding='utf-8') as ": 6104,
      "CREATE TABLE IF NOT EXISTS ": 6105,
      "жили вечно, ни один момент не был бы precious. Осознание конечности заставляет ценить ": 6106,
      ". Раны затягиваются, оставляя шрамы — ": 6107,
      "\nprint('": 6108,
      " {": 6109,
      " г": 6110,
      " быть ": 6111,
      " of ": 6112,
      " обработ": 6113,
      " запрос": 6114,
      " - с": 6115,
      "\"%": 6116,
      "$group": 6117,
      "%s, ": 6118,
      "'за": 6119,
      "'re ": 6120,
      "',\n                ": 6121,
      "',\n            ": 6122,
      "':\n            return ": 6123,
      "',\n            '": 6124,
      "',\n                '": 6125,
      "'лома": 6126,
      "'users', ": 6127,
      "(3": 6128,
      "(5": 6129,
      "(n ": 6130,
      "(in ": 6131,
      "(from ": 6132,
      "(path": 6133,
      "(Notification": 6134,
      "(a, b": 6135,
      "(result, ": 6136,
      "(\"%": 6137,
      "))\n": 6138,
      "-ни": 6139,
      "- с ": 6140,
      "-ориен": 6141,
      "-based ": 6142,
      ".w": 6143,
      ".org": 6144,
      ".show": 6145,
      ".com": 6146,
      ".get_multiplier": 6147,
      ".update(": 6148,
      "/delay": 6149,
      "1, 1": 6150,
      "1000": 6151,
      "23": 6152,
      "5.0": 6153,
      "7, ": 6154,
      "8 ": 6155,
      ":30": 6156,
      "; ": 6157,
      "<= 1": 6158,
      "=10": 6159,
      ">>": 6160,
      "?' ": 6161,
      "@example": 6162,
      "AUL": 6163,
      "BC": 6164,
      "Be": 6165,
      "Brea": 6166,
      "CH": 6167,
      "CL": 6168,
      "Cat": 6169,
      "C) ": 6170,
      "DE": 6171,
      "DN": 6172,
      "D,\n            detail='": 6173,
      "Ear": 6174,
      "Equal": 6175,
      "Edit": 6176,
      "FO": 6177,
      "FAUL": 6178,
      "Gener": 6179,
      "HER": 6180,
      "H:%": 6181,
      "Imple": 6182,
      "JO": 6183,
      "Men": 6184,
      "M:%": 6185,
      "NL": 6186,
      "Nat": 6187,
      "OSE": 6188,
      "P?\nОтвет: ": 6189,
      "Pal": 6190,
      "Que": 6191,
      "Rele": 6192,
      "S\"": 6193,
      "SL": 6194,
      "S (": 6195,
      "UE ": 6196,
      "VC": 6197,
      "VAR": 6198,
      "We": 6199,
      "WHER": 6200,
      "Zero": 6201,
      "[i": 6202,
      "[j": 6203,
      "[str": 6204,
      "]]:\n        '''": 6205,
      "_failure_": 6206,
      "_fact": 6207,
      "_by_": 6208,
      "_name not in self.collections": 6209,
      "aj": 6210,
      "ake ": 6211,
      "aaS": 6212,
      "bat": 6213,
      "bur": 6214,
      "bas": 6215,
      "bal ": 6216,
      "d, ": 6217,
      "dri": 6218,
      "den ": 6219,
      "drea": 6220,
      "edb": 6221,
      "ear ": 6222,
      "ftime": 6223,
      "fri": 6224,
      "fast": 6225,
      "fiden": 6226,
      "gu": 6227,
      "gin": 6228,
      "gmen": 6229,
      "glo": 6230,
      "gas ": 6231,
      "hone": 6232,
      "ide": 6233,
      "is, ": 6234,
      "is. ": 6235,
      "iel": 6236,
      "ibu": 6237,
      "imag": 6238,
      "ig ": 6239,
      "lar": 6240,
      "ling ": 6241,
      "lit": 6242,
      "late": 6243,
      "lli": 6244,
      "lsto": 6245,
      "lled": 6246,
      "loro": 6247,
      "ms": 6248,
      "mu": 6249,
      "mil": 6250,
      "mass ": 6251,
      "mone": 6252,
      "mari": 6253,
      "ning ": 6254,
      "ome": 6255,
      "oce": 6256,
      "p.": 6257,
      "pi": 6258,
      "pul": 6259,
      "psy": 6260,
      "pend": 6261,
      "past": 6262,
      "ror ": 6263,
      "sw": 6264,
      "sing ": 6265,
      "sil": 6266,
      "ssen": 6267,
      "s} ": 6268,
      "site ": 6269,
      "stive ": 6270,
      "s://": 6271,
      "tw": 6272,
      "tx": 6273,
      "te ": 6274,
      "ts, ": 6275,
      "ty.</s>": 6276,
      "tImple": 6277,
      "u.": 6278,
      "use": 6279,
      "vul": 6280,
      "vice ": 6281,
      "voice ": 6282,
      "was ": 6283,
      "w', encoding='utf-8') as ": 6284,
      "x in ": 6285,
      "xual ": 6286,
      "yon": 6287,
      "y]]:\n        '''": 6288,
      "yiel": 6289,
      "{data": 6290,
      "{post": 6291,
      "{book": 6292,
      "{task_id": 6293,
      "}/": 6294,
      "}, ": 6295,
      "}\\\\n": 6296,
      "}')\n": 6297,
      "Во": 6298,
      "Встав": 6299,
      "Жить ": 6300,
      "Ис": 6301,
      "Ле": 6302,
      "Не": 6303,
      "Опла": 6304,
      "Рез": 6305,
      "СТ": 6306,
      "Со": 6307,
      "Ты": 6308,
      "Тол": 6309,
      "Учис": 6310,
      "Япо": 6311,
      "ав": 6312,
      "а, по": 6313,
      "аги": 6314,
      "армо": 6315,
      "блич": 6316,
      "бъек": 6317,
      "близ": 6318,
      "витель": 6319,
      "вяза": 6320,
      "влия": 6321,
      "включа": 6322,
      "гно": 6323,
      "гна": 6324,
      "ген": 6325,
      "гко": 6326,
      "гло": 6327,
      "ема": 6328,
      "елове": 6329,
      "ее — ": 6330,
      "еха": 6331,
      "един": 6332,
      "жется": 6333,
      "жения.</s>": 6334,
      "зв": 6335,
      "зра": 6336,
      "зло": 6337,
      "зол": 6338,
      "зон": 6339,
      "звали ": 6340,
      "и, а ": 6341,
      "ишь": 6342,
      "истинная ": 6343,
      "й, а ": 6344,
      "й-то ": 6345,
      "й. Простить ": 6346,
      "кен": 6347,
      "кин": 6348,
      "ке. ": 6349,
      "к, который ": 6350,
      "крет": 6351,
      "лка": 6352,
      "лу ": 6353,
      "лова": 6354,
      "ления ": 6355,
      "лые ": 6356,
      "ления.</s>": 6357,
      "л.'</s>": 6358,
      "мся": 6359,
      "м. Это ": 6360,
      "м. Не ": 6361,
      "мудрость ": 6362,
      "ню": 6363,
      "нет с": 6364,
      "нём ": 6365,
      "остро": 6366,
      "опис": 6367,
      "оцени": 6368,
      "окру": 6369,
      "ощу": 6370,
      "пы ": 6371,
      "пля": 6372,
      "рх": 6373,
      "рц": 6374,
      "рю": 6375,
      "ры ": 6376,
      "рет ": 6377,
      "ритель": 6378,
      "сп": 6379,
      "сх": 6380,
      "сро": 6381,
      "сет": 6382,
      "сит": 6383,
      "све": 6384,
      "сня": 6385,
      "суд": 6386,
      "сси": 6387,
      "сдела": 6388,
      "счасть": 6389,
      "сскажи": 6390,
      "тя": 6391,
      "тне": 6392,
      "три": 6393,
      "т: {": 6394,
      "ус": 6395,
      "ует": 6396,
      "уско": 6397,
      "утся ": 6398,
      "указыва": 6399,
      "ульта": 6400,
      "фак": 6401,
      "фото": 6402,
      "хва": 6403,
      "х. С": 6404,
      "х?\nОтвет: Свобода воли ": 6405,
      "чи ": 6406,
      "чные ": 6407,
      "чь.</s>": 6408,
      "шё": 6409,
      "шени": 6410,
      "ща ": 6411,
      "щё ": 6412,
      "щую ": 6413,
      "ый": 6414,
      "ы, ": 6415,
      "ым и ": 6416,
      "элек": 6417,
      "ю, ": 6418,
      "юще": 6419,
      "ю?\nОтвет: Счастье в ": 6420,
      "юсь, ": 6421,
      "я, что ": 6422,
      "я. Это ": 6423,
      "ят, ": 6424,
      "ём с": 6425,
      "→ ": 6426,
      "❌ Ошибка ": 6427,
      "   ": 6428,
      "  - ": 6429,
      ", th": 6430,
      ", gen": 6431,
      ", url": 6432,
      ", тем ": 6433,
      ", price": 6434,
      ", при ": 6435,
      ", creating ": 6436,
      ", targe": 6437,
      "стрес": 6438,
      ": bool": 6439,
      ": уважать ": 6440,
      "рост": 6441,
      "ров ": 6442,
      "рое — ": 6443,
      "ром. Т": 6444,
      "е люди ": 6445,
      "е молча": 6446,
      "е дело расходится дале": 6447,
      "о прошло": 6448,
      "о себе": 6449,
      "о всеми недостат": 6450,
      "ет с ": 6451,
      "ет. Самые ": 6452,
      "них": 6453,
      "ниру": 6454,
      "ними": 6455,
      "нику": 6456,
      "ниров": 6457,
      "нии.</s>": 6458,
      ". C": 6459,
      ". Мож": 6460,
      ". 2) ": 6461,
      "и на": 6462,
      "и для ": 6463,
      "и есть ": 6464,
      "и стали ": 6465,
      "и взять только ": 6466,
      "я на ": 6467,
      "я хо": 6468,
      "я жизнь ": 6469,
      "я того ": 6470,
      "я отношения ": 6471,
      "проч": 6472,
      "прощ": 6473,
      "проход": 6474,
      "прощение ": 6475,
      "промеж": 6476,
      "проживать ": 6477,
      "профе": 6478,
      "продви": 6479,
      "прозра": 6480,
      "рами": 6481,
      "рабатыва": 6482,
      "а — ": 6483,
      "нов ": 6484,
      "но, но ": 6485,
      "но: {": 6486,
      "но. В ": 6487,
      "новый ": 6488,
      "носить ": 6489,
      "новеси": 6490,
      "ini": 6491,
      "ink": 6492,
      "int(": 6493,
      "indi": 6494,
      "inste": 6495,
      "inve": 6496,
      "inter ": 6497,
      "influ": 6498,
      "inforce": 6499,
      "set_": 6500,
      "secu": 6501,
      "ses.</s>": 6502,
      "separ": 6503,
      "sexual ": 6504,
      "ветра": 6505,
      "s для ": 6506,
      "s do": 6507,
      "s of ": 6508,
      "s based on ": 6509,
      "ong": 6510,
      "only": 6511,
      "attr": 6512,
      "atic ": 6513,
      "ature": 6514,
      "at's ": 6515,
      "atitu": 6516,
      "Вопрос: На": 6517,
      "Вопрос: Ты": 6518,
      "ref": 6519,
      "res ": 6520,
      "red ": 6521,
      "redo": 6522,
      "reci": 6523,
      "?\nОтвет: A": 6524,
      "?\nОтвет: M": 6525,
      "?\nОтвет: S": 6526,
      "ремо": 6527,
      "реза": 6528,
      "рели": 6529,
      "реша": 6530,
      "реди": 6531,
      "реляцио": 6532,
      "реаги": 6533,
      "поч": 6534,
      "пора": 6535,
      "помо": 6536,
      "поста": 6537,
      "подо": 6538,
      "понять ": 6539,
      "почита": 6540,
      "поверх": 6541,
      "помина": 6542,
      "поиск ": 6543,
      "ть реак": 6544,
      "наз": 6545,
      "нан": 6546,
      "нас": 6547,
      "нач": 6548,
      "напол": 6549,
      "ная, ": 6550,
      "надеж": 6551,
      "например": 6552,
      "навсегда": 6553,
      "ота": 6554,
      "от с": 6555,
      " свет": 6556,
      " сортиров": 6557,
      "актив": 6558,
      "e in ": 6559,
      "чение, ": 6560,
      "чению": 6561,
      "чень": 6562,
      "й - ": 6563,
      "ori": 6564,
      "ory_": 6565,
      "enh": 6566,
      "ent_": 6567,
      "ensu": 6568,
      "enum": 6569,
      "encr": 6570,
      "ers ": 6571,
      "erate": 6572,
      "ern ": 6573,
      "error": 6574,
      "er(*": 6575,
      "\n    return ": 6576,
      "вол": 6577,
      "вор": 6578,
      "вое ": 6579,
      "вое — ": 6580,
      "воря": 6581,
      "stin": 6582,
      "stand ": 6583,
      "state": 6584,
      "stant": 6585,
      "stamp": 6586,
      "stant ": 6587,
      "не, ": 6588,
      "не.</s>": 6589,
      "нева": 6590,
      "нем ": 6591,
      "неся ": 6592,
      "нее. ": 6593,
      "ненуж": 6594,
      "нее, чем ": 6595,
      "независимо": 6596,
      "неуда": 6597,
      "необход": 6598,
      "ер для ": 6599,
      "м без ": 6600,
      "м друго": 6601,
      "м человеком ты ": 6602,
      "ны.</s>": 6603,
      "ные, ": 6604,
      "ны, но ": 6605,
      "ный с": 6606,
      "ным. ": 6607,
      "ный.</s>": 6608,
      "ны, без ": 6609,
      "ны. Идеал — когда ": 6610,
      "в ту": 6611,
      "в под": 6612,
      "в программирова": 6613,
      "в мире": 6614,
      "в боли": 6615,
      "в темно": 6616,
      "в обыден": 6617,
      "в первую ": 6618,
      "в одинаков": 6619,
      "мор": 6620,
      "моде": 6621,
      "даль": 6622,
      "дают ": 6623,
      "даёт ": 6624,
      "давно ": 6625,
      "— даже ": 6626,
      "those ": 6627,
      "altern": 6628,
      "alog": 6629,
      "енное ": 6630,
      "ении ": 6631,
      "не идеаль": 6632,
      "не можем выбрать, где родиться, но можем выбрать, как жить": 6633,
      "избе": 6634,
      "излуча": 6635,
      "изон": 6636,
      "обу": 6637,
      "обна": 6638,
      "обработа": 6639,
      "ка', ": 6640,
      "ками и ": 6641,
      "sele": 6642,
      "le, ": 6643,
      "lead": 6644,
      "кора": 6645,
      "кой ": 6646,
      "ком, ": 6647,
      "коллек": 6648,
      "кода.</s>": 6649,
      "ак что ": 6650,
      "но для ": 6651,
      "те, ": 6652,
      "тера": 6653,
      "те.</s>": 6654,
      "теста": 6655,
      "тели ": 6656,
      "romo": 6657,
      "rove ": 6658,
      "ross ": 6659,
      "риру": 6660,
      "рирова": 6661,
      "риск": 6662,
      "ded ": 6663,
      "decentr": 6664,
      "devices ": 6665,
      "develop": 6666,
      "destin": 6667,
      "uron": 6668,
      "t mo": 6669,
      "t of ": 6670,
      "том ": 6671,
      "том и ": 6672,
      "зажи": 6673,
      "задер": 6674,
      "защит": 6675,
      "у о": 6676,
      "у меня ": 6677,
      "у нас ": 6678,
      "у каждого ": 6679,
      "оде": 6680,
      "руют ": 6681,
      "ру. Она проверяется ": 6682,
      "ing), ": 6683,
      "деля": 6684,
      "де, что ": 6685,
      "час ": 6686,
      "чается ": 6687,
      "чало ": 6688,
      "mean": 6689,
      "meas": 6690,
      "mes from ": 6691,
      "metal": 6692,
      "tes ": 6693,
      "стве": 6694,
      "cour": 6695,
      "comb": 6696,
      "comes from ": 6697,
      "х детей, помочь ": 6698,
      "ливы": 6699,
      "лирова": 6700,
      "лишь ": 6701,
      "лись": 6702,
      "мане ": 6703,
      "мати": 6704,
      "мало": 6705,
      "маши": 6706,
      "стая ": 6707,
      "стати": 6708,
      "ce.</s>": 6709,
      "ми. ": 6710,
      "мину": 6711,
      "миром": 6712,
      "миром. Т": 6713,
      "стой с": 6714,
      ")\n        text_widget.": 6715,
      ")\n        ttk.Button(toolbar, text='": 6716,
      ")\n        content = text_widget.get('1.0', 'end-1c": 6717,
      "self.failure": 6718,
      "self.connection_pool": 6719,
      "дом": 6720,
      "доро": 6721,
      "домаш": 6722,
      "дом без ": 6723,
      "на и ": 6724,
      "на ку": 6725,
      "на смер": 6726,
      "на обстоятельства": 6727,
      "на основе ": 6728,
      "tioning ": 6729,
      "ing and ": 6730,
      "тия ": 6731,
      "тиха": 6732,
      "тифика": 6733,
      "acl": 6734,
      "actic": 6735,
      "action ": 6736,
      "across ": 6737,
      "ici": 6738,
      "ich ": 6739,
      "ть, если ": 6740,
      "ть. Но ": 6741,
      "ть, а не ": 6742,
      "ть, понима": 6743,
      "ть. Она проходит ": 6744,
      "вища ": 6745,
      "лю ": 6746,
      "высо": 6747,
      "выну": 6748,
      "выход": 6749,
      "вый с": 6750,
      "выдер": 6751,
      "привод": 6752,
      "and chemical ": 6753,
      "сем ": 6754,
      "лом и ": 6755,
      "меш": 6756,
      "меха": 6757,
      "лечит ": 6758,
      "лей.</s>": 6759,
      "asses ": 6760,
      "gestive ": 6761,
      "с чи": 6762,
      "user(user": 6763,
      "username ": 6764,
      "циал": 6765,
      "дут ": 6766,
      "духов": 6767,
      "ations, ": 6768,
      "ations.</s>": 6769,
      "ation). ": 6770,
      "ationship": 6771,
      "т вместе с ": 6772,
      "?\nОтвет: Со": 6773,
      "?\nОтвет: Счастье — ": 6774,
      "бота ": 6775,
      "ли на ": 6776,
      "ли идеаль": 6777,
      "инг": 6778,
      "инстин": 6779,
      "инвести": 6780,
      "инкапсу": 6781,
      "top": 6782,
      "tolsto": 6783,
      "вез": 6784,
      "вее ": 6785,
      "веща": 6786,
      ", а говорит правду": 6787,
      "ит на ": 6788,
      "ит отсутстви": 6789,
      "ит к с": 6790,
      "ки'''\n        ": 6791,
      "кий с": 6792,
      ") that ": 6793,
      ") + 1": 6794,
      "concurren": 6795,
      "concep": 6796,
      "confiden": 6797,
      "мы, ": 6798,
      "мым ": 6799,
      "была ": 6800,
      "бывает ": 6801,
      "печа": 6802,
      "ategy ": 6803,
      "ate('<": 6804,
      "состоит ": 6805,
      "соедине": 6806,
      "для будуще": 6807,
      "для управления ": 6808,
      "для создания ": 6809,
      "для получения ": 6810,
      "для треть": 6811,
      "бед": 6812,
      "бесс": 6813,
      "Вопрос: Что ты ": 6814,
      "Вопрос: Что делает ": 6815,
      "бол": 6816,
      "ись ": 6817,
      "иску": 6818,
      "исход": 6819,
      "исце": 6820,
      "univer": 6821,
      "нуть ": 6822,
      "light, ": 6823,
      "шим ": 6824,
      "ших ": 6825,
      "сть над ": 6826,
      "):\n        raise HTTPException(\n            status_code=status.HTTP_4": 6827,
      "mented": 6828,
      "разве": 6829,
      "развер": 6830,
      "разные ": 6831,
      "разных ": 6832,
      "стояние души ": 6833,
      "progra": 6834,
      "та.</s>": 6835,
      "овая ": 6836,
      "овать ": 6837,
      "менты ": 6838,
      ". На ": 6839,
      "chain": 6840,
      "chniques ": 6841,
      "кун": 6842,
      "кую ": 6843,
      "купи": 6844,
      "ку: с ": 6845,
      "low": 6846,
      "love ": 6847,
      "love": 6848,
      "loop": 6849,
      "друга": 6850,
      "in and ": 6851,
      "акой ": 6852,
      "акого ": 6853,
      "пал": 6854,
      "пау": 6855,
      "паль": 6856,
      "падать ": 6857,
      "е, любить ": 6858,
      "щество ": 6859,
      "\n\nasync def ": 6860,
      "navig": 6861,
      "dosto": 6862,
      "ю и ": 6863,
      "от по": 6864,
      "от жизни": 6865,
      "от прия": 6866,
      "от бре": 6867,
      "сящее ": 6868,
      "любит": 6869,
      "return": 6870,
      "верит в ": 6871,
      "верное, ": 6872,
      "nes": 6873,
      "ney": 6874,
      "pol": 6875,
      "power ": 6876,
      "popul": 6877,
      ", но можем выб": 6878,
      "удов": 6879,
      "удны. Идеал — когда ": 6880,
      "return {\n        '": 6881,
      "more ": 6882,
      "move ": 6883,
      "moves ": 6884,
      "s. F": 6885,
      "s. The ": 6886,
      "s. 5) ": 6887,
      "s. Мы ": 6888,
      "s. Trans": 6889,
      "работает": 6890,
      "max": 6891,
      "л в с": 6892,
      "л код ": 6893,
      "\n                FROM ": 6894,
      "\n                )\n            '''": 6895,
      "— это она": 6896,
      "— это тот, кто ": 6897,
      "— это она.</s>": 6898,
      "— это внутреннее состояние, которое ": 6899,
      "ми в ": 6900,
      "щает ": 6901,
      ", пол": 6902,
      ", подоб": 6903,
      ", попробу": 6904,
      "ить, а не ": 6905,
      "ный человек ": 6906,
      "ный вечер": 6907,
      "ный менедж": 6908,
      "worl": 6909,
      "гает ": 6910,
      "# Создаем ": 6911,
      "своими ": 6912,
      "страхи": 6913,
      "ние жизни.</s>": 6914,
      "application": 6915,
      "exce": 6916,
      "extraction ": 6917,
      "система ": 6918,
      "сила.</s>": 6919,
      ". Это состояние души": 6920,
      "мысля": 6921,
      "ное может с": 6922,
      "ное и взять только ": 6923,
      "ght = ": 6924,
      "name} (": 6925,
      "ell": 6926,
      "else ": 6927,
      "ell ": 6928,
      "visu": 6929,
      "via ": 6930,
      "vities ": 6931,
      "быть честным, ": 6932,
      "disp": 6933,
      "division": 6934,
      "dioxid": 6935,
      "dialog": 6936,
      "digestive ": 6937,
      "жденное ": 6938,
      "шал": 6939,
      "шать себя ": 6940,
      "ния — это ": 6941,
      "ssil ": 6942,
      "Вопрос: Что такое C": 6943,
      "fix": 6944,
      "fight ": 6945,
      "ется на ": 6946,
      "ется дать ": 6947,
      "ется ежеднев": 6948,
      "work in ": 6949,
      "пуга": 6950,
      "пуска": 6951,
      "пусты": 6952,
      "роваться ": 6953,
      "')\n    \n    # ": 6954,
      "сти.</s>": 6955,
      "\n    \n    def area": 6956,
      "\n    \n    def perimeter": 6957,
      "\n    \n    def make_sound": 6958,
      "()\n    \n    # ": 6959,
      "()}')\n": 6960,
      "е. Можно ": 6961,
      "е. А ": 6962,
      "пределения ": 6963,
      "! Это ": 6964,
      "! У ": 6965,
      ":\n    '''": 6966,
      ":\n    def __init__(self):\n        ": 6967,
      "')\n        edit_menu.add_command(label='": 6968,
      "datacl": 6969,
      "strftime": 6970,
      "stribu": 6971,
      " = tk.": 6972,
      " = ttk.": 6973,
      "всё": 6974,
      "всей ": 6975,
      "всех ": 6976,
      "сад": 6977,
      "само ": 6978,
      "Вопрос: Почему время ": 6979,
      "Вопрос: Почему добры": 6980,
      "Вопрос: Почему прощение ": 6981,
      "adju": 6982,
      "cial ": 6983,
      "cies ": 6984,
      "гран": 6985,
      "Вопрос: Ты за": 6986,
      "ителя": 6987,
      "итель ": 6988,
      "ность — это ": 6989,
      "ность за ": 6990,
      "very": 6991,
      "versal": 6992,
      "\n            '''": 6993,
      "\n            for ": 6994,
      "es), ": 6995,
      "timestamp": 6996,
      "credential": 6997,
      "ем.</s>": 6998,
      "ем с": 6999,
      "ему ": 7000,
      "холод": 7001,
      "делает с": 7002,
      "бума": 7003,
      " с возрасто": 7004,
      "(self, user_id": 7005,
      "(self, calculator": 7006,
      "терп": 7007,
      "чужи": 7008,
      "воздух": 7009,
      "ности. Лучший способ ": 7010,
      "_id']": 7011,
      "д в на": 7012,
      "д — не обязательно ": 7013,
      "жажд": 7014,
      "ты не ": 7015,
      "Могу ": 7016,
      "ные момен": 7017,
      "'''\n        print('": 7018,
      "'''\n        self.get_current_text_widget().": 7019,
      "'''\n        text_widget = self.get_current_text_widget(": 7020,
      ". Си": 7021,
      ". Счастье ": 7022,
      ". Свобода ": 7023,
      " себе": 7024,
      " сейча": 7025,
      " сегодня": 7026,
      " сегодня ": 7027,
      "ts and ": 7028,
      "баз": 7029,
      "частью?\nОтвет: Счастье в ": 7030,
      "with op": 7031,
      "heav": 7032,
      "ывающая ": 7033,
      "post in ": 7034,
      "posts = ": 7035,
      "post(user": 7036,
      "feren": 7037,
      "feedb": 7038,
      "или все ": 7039,
      "или других, ": 7040,
      "или оправда": 7041,
      "мы становимся ": 7042,
      "мы жили вечно, ни один момент не был бы precious. Осознание конечности заставляет ценить ": 7043,
      "шепо": 7044,
      ": {total_": 7045,
      "ния?\nОтвет: Искусство ": 7046,
      "значит ful": 7047,
      "? На": 7048,
      "? Ра": 7049,
      "? А ": 7050,
      "sist": 7051,
      "sis, ": 7052,
      "simul": 7053,
      "simil": 7054,
      "space": 7055,
      "spam ": 7056,
      "split": 7057,
      "му.</s>": 7058,
      "му. Раны затягиваются, оставляя шрамы — ": 7059,
      "ние\n": 7060,
      "ние.</s>": 7061,
      "ние, а ": 7062,
      "ние?\nОтвет: Процесс ": 7063,
      "ние. Научиться быть с собой ": 7064,
      "': len(": 7065,
      "ь, разви": 7066,
      "человека": 7067,
      "such ": 7068,
      "ют сво": 7069,
      "ствия": 7070,
      "duc": 7071,
      "duct": 7072,
      "for x in ": 7073,
      "for post in ": 7074,
      "ленная ": 7075,
      "ленности": 7076,
      "из приняти": 7077,
      "из честности": 7078,
      "можно молча": 7079,
      "мени г": 7080,
      "?\nОтвет: Да, по": 7081,
      "полне": 7082,
      "данные": 7083,
      "данные ": 7084,
      "ности в ": 7085,
      "ности в се": 7086,
      "improve ": 7087,
      "туи": 7088,
      "is?\nОтвет: ": 7089,
      "события": 7090,
      "filedialog": 7091,
      "когда не ": 7092,
      "мер ": 7093,
      "еть — посмотреть в лицо. Разбер": 7094,
      "подтвержда": 7095,
      "подход к ": 7096,
      "contains ": 7097,
      ". Не можем ": 7098,
      "Зада": 7099,
      "остави": 7100,
      "остаться ": 7101,
      "людь": 7102,
      "age': ": 7103,
      "play": 7104,
      "plication ": 7105,
      "patch": 7106,
      "в современ": 7107,
      "рять ": 7108,
      "твоя ": 7109,
      "твой ": 7110,
      "лучиться": 7111,
      "current": 7112,
      "elements ": 7113,
      "eletal ": 7114,
      ". В умении ": 7115,
      "print('✅ ": 7116,
      "phon": 7117,
      "ance.</s>": 7118,
      "иной ": 7119,
      "умрет ": 7120,
      ", если проживать ": 7121,
      "стемы": 7122,
      "стесня": 7123,
      "любовь или ": 7124,
      "любовь с первого взгля": 7125,
      "ly принимать ": 7126,
      "его 'лома": 7127,
      "ые люди ": 7128,
      ". Ищи ": 7129,
      " события": 7130,
      "му - ": 7131,
      "му отравлять настоящее.</s>": 7132,
      "сти — ": 7133,
      "родство ": 7134,
      "родственная ": 7135,
      "tion work?\nОтвет: ": 7136,
      "пользователь": 7137,
      "пользование\n": 7138,
      "сть, а ": 7139,
      "контен": 7140,
      "контей": 7141,
      "концеп": 7142,
      "конкрет": 7143,
      "ешь быть честным, ": 7144,
      "beau": 7145,
      "beyon": 7146,
      "forwar": 7147,
      "имму": 7148,
      "прет": 7149,
      "ни не идеаль": 7150,
      ". Два ": 7151,
      ". Для одного ": 7152,
      ". Действи": 7153,
      "безрасс": 7154,
      "['email']": 7155,
      "['_id']": 7156,
      "tific": 7157,
      "db.insert_document(": 7158,
      "']\n    }": 7159,
      "00)\n    ": 7160,
      "lling ": 7161,
      "llite ": 7162,
      "pytest": 7163,
      "tasks = [": 7164,
      "следу": 7165,
      "ity.</s>": 7166,
      "production ": 7167,
      "библи": 7168,
      ". Верность ": 7169,
      "ствует ": 7170,
      "()\n                ": 7171,
      "()\n        self.": 7172,
      "None\n        self.": 7173,
      "ская ": 7174,
      "сказа": 7175,
      "\n\n# Запуск ": 7176,
      "люди — те": 7177,
      "parti": 7178,
      "parame": 7179,
      ". Под": 7180,
      "\n        self._": 7181,
      "вать масшта": 7182,
      "ны на ": 7183,
      "arr):\n    '''": 7184,
      "arr if ": 7185,
      "arr, targe": 7186,
      "место ": 7187,
      "```\n": 7188,
      "```</s>": 7189,
      "ется, что ": 7190,
      "понимаете ": 7191,
      " сохранять ": 7192,
      "тебя в худшую сторону": 7193,
      ", который делает ": 7194,
      ", который показывает ": 7195,
      ", который подтвержда": 7196,
      "collection_name not in self.collections": 7197,
      "t.fu": 7198,
      "when ": 7199,
      "white ": 7200,
      "Теперь ": 7201,
      "пиц": 7202,
      "пиров": 7203,
      "по себе": 7204,
      "трениров": 7205,
      "чном ": 7206,
      "author('": 7207,
      "звони": 7208,
      "зволить ": 7209,
      "ять о ": 7210,
      "ердце": 7211,
      "себя от бре": 7212,
      "call": 7213,
      "file ": 7214,
      "ке между ": 7215,
      "ценности ": 7216,
      "ценна.</s>": 7217,
      ". Буду": 7218,
      "зависящее ": 7219,
      "commun": 7220,
      "думаешь": 7221,
      "думать о смер": 7222,
      "?\nОтвет: Счастье действительно ": 7223,
      "?\nОтвет: Счастье — это не отсутствие проблем, а умение ": 7224,
      "?\nОтвет: Счастье — это внутреннее состояние, которое ": 7225,
      "mate ": 7226,
      "нет! ": 7227,
      "первый ": 7228,
      "простить ": 7229,
      "простыми ": 7230,
      "простит отсутстви": 7231,
      "ми, расту": 7232,
      "self._worker": 7233,
      "self._transaction_hist": 7234,
      "cursor_fact": 7235,
      "выбор, вто": 7236,
      "выбор, который подтвержда": 7237,
      "current_user": 7238,
      "cular ": 7239,
      "some ": 7240,
      "somes ": 7241,
      "жить по-": 7242,
      "жить во дво": 7243,
      "и, приходят ": 7244,
      "ть, принимать ": 7245,
      "menu=": 7246,
      "de за ": 7247,
      "ize ": 7248,
      "ization": 7249,
      "крыль": 7250,
      "к себе — ": 7251,
      ". Провер": 7252,
      "?\nОтвет: Ма": 7253,
      "count(": 7254,
      "counter ": 7255,
      "country": 7256,
      "(self):\n        '''Настройка ": 7257,
      ". Она требует ": 7258,
      "ческий ": 7259,
      "Расс": 7260,
      "зырь": 7261,
      "опыт.</s>": 7262,
      "ошибки и ": 7263,
      "ница": 7264,
      ". Умение ": 7265,
      "редак": 7266,
      "словно ": 7267,
      "users/": 7268,
      "create_post": 7269,
      "ivan": 7270,
      "сов ": 7271,
      "современ": 7272,
      "совсем ": 7273,
      "шь, как ": 7274,
      "стрем": 7275,
      "карь": 7276,
      "spea": 7277,
      "' в ": 7278,
      "NotImple": 7279,
      "email': '": 7280,
      "odern ": 7281,
      "y_task": 7282,
      "буду ": 7283,
      "до совер": 7284,
      "ой. Пере": 7285,
      "чно нет! ": 7286,
      "ние, простит отсутстви": 7287,
      ". Ежеднев": 7288,
      "радостя": 7289,
      "даже в ту": 7290,
      "— в их с": 7291,
      "— в промеж": 7292,
      "одиночество ": 7293,
      "ться?</s>": 7294,
      "learning (": 7295,
      "learning from ": 7296,
      "нельзя купить ": 7297,
      "IN ": 7298,
      "фиксту": 7299,
      "ющий с": 7300,
      "?\nОтвет: В шкафу": 7301,
      "находится ": 7302,
      "честве ": 7303,
      "servers.</s>": 7304,
      "actmethod": 7305,
      "искусство": 7306,
      "искусстве ": 7307,
      "друг друга ": 7308,
      ", но не гаран": 7309,
      "настоящее, любить ": 7310,
      "item_path": 7311,
      ",\n        'city': '": 7312,
      "\nimport time": 7313,
      "value": 7314,
      "горя": 7315,
      ". Ме": 7316,
      "равновеси": 7317,
      "новому. Раны затягиваются, оставляя шрамы — ": 7318,
      "?\nОтвет: Практи": 7319,
      "момент, ": 7320,
      "connection ": 7321,
      "состояние. Научиться быть с собой ": 7322,
      "часто рождаются из неизвест": 7323,
      "(self):\n        raise ": 7324,
      "(self):\n        return f'": 7325,
      "— это не только физическая, но и эмоциональ": 7326,
      "красивее": 7327,
      "будущем.</s>": 7328,
      "electric": 7329,
      "HTTP запрос": 7330,
      "bin.org": 7331,
      "put(": 7332,
      ", в гармонии ": 7333,
      ". Что ": 7334,
      ". Челове": 7335,
      "наш ": 7336,
      "cell ": 7337,
      "?\nОтвет: Свобода в ": 7338,
      "?\nОтвет: Свобода — это возможность ": 7339,
      "другому": 7340,
      "другой. Простить ": 7341,
      "results.append(": 7342,
      "котором ": 7343,
      "счастливее ": 7344,
      "evsk": 7345,
      "event_": 7346,
      "hour": 7347,
      "авторов": 7348,
      "дети ": 7349,
      "ей отда": 7350,
      "ри как ": 7351,
      "сери": 7352,
      "серди": 7353,
      "серверо": 7354,
      ", накапли": 7355,
      "стемы ": 7356,
      "решения": 7357,
      "these ": 7358,
      "theory ": 7359,
      "корте": 7360,
      "title='": 7361,
      "fuel": 7362,
      "future ": 7363,
      "нная база ": 7364,
      "олеть — посмотреть в лицо. Разбер": 7365,
      "утке между ": 7366,
      "interaction": 7367,
      "— значит обрести ": 7368,
      "— значит освободить ": 7369,
      "active ": 7370,
      "activities ": 7371,
      "'''\n    print(f'": 7372,
      "user_id = ": 7373,
      "достаточно.</s>": 7374,
      "species ": 7375,
      "Pool": 7376,
      "food ": 7377,
      "fossil ": 7378,
      "fferent ": 7379,
      "skeletal ": 7380,
      "s) that ": 7381,
      "x for x in ": 7382,
      "Батаре": 7383,
      "ее можно по ": 7384,
      "м, а с ": 7385,
      "урок": 7386,
      ", b.": 7387,
      ", birth": 7388,
      ", подтвержда": 7389,
      ". Это не просто ": 7390,
      ". Это не анархия, а ": 7391,
      ". Это не эгоизм, а самосохранение": 7392,
      "красота привлекает внимание, внутренняя — сердца": 7393,
      "includes: ": 7394,
      "доброе дело расходится дале": 7395,
      "culatory ": 7396,
      "?\nОтвет: Страх исчеза": 7397,
      "await self._queue.": 7398,
      "). B": 7399,
      "[]\n    \n    def ": 7400,
      "[]\n        \n        ": 7401,
      "law": 7402,
      "nerabil": 7403,
      "анализ": 7404,
      "во всей ": 7405,
      "ерев": 7406,
      "та {amount": 7407,
      "простой ": 7408,
      "рань": 7409,
      "чения рисков": 7410,
      "орган": 7411,
      "свой уголок ": 7412,
      "explo": 7413,
      "expand": 7414,
      "поддерживать ": 7415,
      "you with ": 7416,
      "после страсти ": 7417,
      "\nclass Test": 7418,
      "',\n        'inte": 7419,
      "',\n        'age': ": 7420,
      "PayPal": 7421,
      "SQLite": 7422,
      "carri": 7423,
      "emission": 7424,
      "ed = ": 7425,
      "marke": 7426,
      "такие ": 7427,
      "таким ": 7428,
      "структу": 7429,
      "нии\nОтвет: ": 7430,
      "прошлому отравлять настоящее.</s>": 7431,
      "реальностью": 7432,
      "казать ": 7433,
      "мечты ": 7434,
      "):\n            if ": 7435,
      "):\n            raise ValueError('": 7436,
      "charg": 7437,
      "charge": 7438,
      "character": 7439,
      "models ": 7440,
      "гармонию": 7441,
      "гармонии.</s>": 7442,
      "правимся": 7443,
      "here are ": 7444,
      "времени, ": 7445,
      "времени делать ": 7446,
      "result = self.calc.": 7447,
      "created_at ": 7448,
      "Вопрос: Куда делась ": 7449,
      "хороших детей, помочь ": 7450,
      "благодарности ": 7451,
      "Вопрос: Что-то я совсем ": 7452,
      "ребенка": 7453,
      "ребенка ": 7454,
      "признаку: с ": 7455,
      "Any, ": 7456,
      "Animal": 7457,
      "Any]]:\n        '''": 7458,
      "DNA re": 7459,
      "find_": 7460,
      "finally": 7461,
      "graph": 7462,
      "gratitu": 7463,
      "x_calcul": 7464,
      "Что я хо": 7465,
      "ирать реак": 7466,
      "е и быть ": 7467,
      "е и голова ": 7468,
      "Вопрос: Всегда ": 7469,
      "region": 7470,
      "показывает, что ": 7471,
      "лей, но ": 7472,
      "цию. Но совесть нельзя уничтожить ": 7473,
      "партне": 7474,
      "оставить ненуж": 7475,
      "patterns from ": 7476,
      "отношений с ": 7477,
      "period": 7478,
      "?\nОтвет: Счастье в gratitu": 7479,
      "language process": 7480,
      "frastruc": 7481,
      "human": 7482,
      "мудрости ": 7483,
      "цветы ": 7484,
      "я, благодар": 7485,
      "information. ": 7486,
      "information.</s>": 7487,
      "reality": 7488,
      "потому что ": 7489,
      "— когда выбира": 7490,
      "извлеки ": 7491,
      "извлечь ": 7492,
      "приходит с ": 7493,
      "traff": 7494,
      "traversal": 7495,
      "испытания, ": 7496,
      "):\n        self.name = ": 7497,
      "new_file": 7498,
      ", потом ": 7499,
      "свои границы, заботиться о ": 7500,
      "Вопрос: Почему в одиночеств": 7501,
      "generate ": 7502,
      "generate('<": 7503,
      "test_divide": 7504,
      "глубиной ": 7505,
      "?\nОтвет: Одиночество — это возможность ": 7506,
      "деньги": 7507,
      ": str\n    email": 7508,
      "к себе.</s>": 7509,
      "Notification()\n        ": 7510,
      "Notification(Notification": 7511,
      "?\nОтвет: Любовь к себе — ": 7512,
      "недостатки": 7513,
      "лодо": 7514,
      "носит добро": 7515,
      "носит приговор ": 7516,
      "\n        \n        for ": 7517,
      "integr": 7518,
      "intelli": 7519,
      "текстов": 7520,
      "self.current_file = ": 7521,
      "достижения ": 7522,
      "мента.</s>": 7523,
      "dom.</s>": 7524,
      "Вопрос: Почему люди с чи": 7525,
      "complex_calcul": 7526,
      "человека в одинаков": 7527,
      "ности и преувели": 7528,
      "лучшее. О": 7529,
      "better": 7530,
      "?\nОтвет: Верность — это не только физическая, но и эмоциональ": 7531,
      "могут чувствовать себя ": 7532,
      "arr[mid": 7533,
      "recognition, and ": 7534,
      "Вопрос: Зачем думать о смер": 7535,
      " + 1]": 7536,
      "Deep learning ": 7537,
      "biotics ": 7538,
      "dict]": 7539,
      "иначе": 7540,
      "кровища ": 7541,
      ". Me": 7542,
      ". Maj": 7543,
      "прошлы": 7544,
      "изменение жизни.</s>": 7545,
      "короб": 7546,
      "велика": 7547,
      "ную минут": 7548,
      "max_conn": 7549,
      "vice.get_multiplier": 7550,
      "radius": 7551,
      "radiation ": 7552,
      ": {e}": 7553,
      "right[j": 7554,
      "твои мысли, ": 7555,
      ":\n                    self.stat": 7556,
      "?\nОтвет: Время лечит, но не ": 7557,
      "present mo": 7558,
      "?\nОтвет: Конечно нет! ": 7559,
      "author_id, gen": 7560,
      ". Без довери": 7561,
      ". Без чувств ": 7562,
      "больше, чем ": 7563,
      "?\nОтвет: Мудрость в ": 7564,
      "?\nОтвет: Мудрость приходит не ": 7565,
      "validator": 7566,
      "public ": 7567,
      ", поддержива": 7568,
      "?\nОтвет: Смерть — ": 7569,
      "Division": 7570,
      "Different ": 7571,
      "Mock": 7572,
      "ON ": 7573,
      "Techniques ": 7574,
      "face ": 7575,
      "facial recogni": 7576,
      "other ": 7577,
      "pair": 7578,
      "pass\n    \n    def ": 7579,
      "pass\n\nclass ": 7580,
      "Откры": 7581,
      "Отправка ": 7582,
      "здоро": 7583,
      "нный на ": 7584,
      "очень ": 7585,
      "этим человеком ты ": 7586,
      "attack": 7587,
      "?\nОтвет: Устройство, ": 7588,
      "й и прекрасно": 7589,
      "некоторых ": 7590,
      "общении": 7591,
      "left[i": 7592,
      "democrac": 7593,
      "забыть, значит — перестать ": 7594,
      "дежде, что ": 7595,
      "template": 7596,
      "мира сохранять ": 7597,
      "документов": 7598,
      "name, country": 7599,
      "ровать события": 7600,
      ":\n            return []\n        \n        ": 7601,
      "ности, меняется, но не исчезает": 7602,
      "основанный на ": 7603,
      "...')\n        ": 7604,
      "притворя": 7605,
      "db.get_user(user_id": 7606,
      "?\nОтвет: Красота души ": 7607,
      "зависимости": 7608,
      ")\n```\n\n": 7609,
      "то, что ты взял ": 7610,
      "одиночество": 7611,
      "прощать быстре": 7612,
      "===')\n    \n    ": 7613,
      "active': ": 7614,
      "ValueError": 7615,
      "https://": 7616,
      "httpbin.org": 7617,
      "Вопрос: Может ли дружба быть ": 7618,
      "environment": 7619,
      "environment ": 7620,
      "'\n        )\n    \n    ": 7621,
      "(self.root": 7622,
      "// 2": 7623,
      "capital ": 7624,
      "elimin": 7625,
      "fluid ": 7626,
      "has tw": 7627,
      "payment(": 7628,
      "{\n        'name': '": 7629,
      "блок": 7630,
      "зрело": 7631,
      "землей, но ": 7632,
      "истинное ": 7633,
      "очереди": 7634,
      "со всеми недостат": 7635,
      "сердце и голова ": 7636,
      "тно-ориен": 7637,
      "нием.</s>": 7638,
      ". Помни": 7639,
      ". Главное — свет": 7640,
      ". Главное — они учатся вместе с деть": 7641,
      "search ": 7642,
      "release": 7643,
      "ная. Это когда ": 7644,
      "написал код ": 7645,
      "storing ": 7646,
      "— в служени": 7647,
      "тированное программирова": 7648,
      "ложила ": 7649,
      "бесценна.</s>": 7650,
      "unittest": 7651,
      "unittest.": 7652,
      "разруша": 7653,
      "movement ": 7654,
      "работать над отношения": 7655,
      "Вопрос: Почему с возрасто": 7656,
      "noise cance": 7657,
      "'''\n        if collection_name not in self.collections": 7658,
      "controlling ": 7659,
      "глубокие ": 7660,
      "должна о": 7661,
      "других. Это не эгоизм, а самосохранение": 7662,
      "?\nОтвет: Настоящий друг — это тот, кто ": 7663,
      ". Такая дружба бесценна.</s>": 7664,
      "root.bind('<Control-": 7665,
      "организмов": 7666,
      "один мудрец: '": 7667,
      "здесь и сейчас": 7668,
      "start_time = time.time()\n        ": 7669,
      "?\nОтвет: Доверие — это ": 7670,
      "?\nОтвет: Доверие рождается из ": 7671,
      "осознанный выбор": 7672,
      "информации ": 7673,
      "?', 'Что я хо": 7674,
      "They ": 7675,
      "mones ": 7676,
      "wrap": 7677,
      "ем, учимся ": 7678,
      "устало": 7679,
      "услышать себя ": 7680,
      "увядает, а ": 7681,
      ". Говор": 7682,
      ". This process ": 7683,
      "и отдых": 7684,
      "поведение ": 7685,
      "enabling ": 7686,
      "algorithm": 7687,
      "algorithms ": 7688,
      "телеф": 7689,
      "заряд": 7690,
      "Вопрос: Как вы понимаете ": 7691,
      "assive ": 7692,
      "Вопрос: Что для вас означает ": 7693,
      "):\n        return f'Опла": 7694,
      "):\n        return f'Отправка ": 7695,
      "s. Each ": 7696,
      "ние и изменение жизни.</s>": 7697,
      "вселенной": 7698,
      "(self, message):\n        return f'Отправка ": 7699,
      "остается уважение, ": 7700,
      "):\n    def send": 7701,
      "):\n    def pay(self, amount": 7702,
      "pytest.mark": 7703,
      "Вопрос: Ты не забыл про ": 7704,
      "восстановить": 7705,
      "understand": 7706,
      "understand ": 7707,
      ". Мы боимся не ": 7708,
      "Главное — не застревать ": 7709,
      "Главное — не то, что ты взял ": 7710,
      "cryptocurrency ": 7711,
      "cryptograph": 7712,
      "random.": 7713,
      "решения бездуш": 7714,
      "?\nОтвет: На столе": 7715,
      "выполнения ": 7716,
      "created_at': datetime.now": 7717,
      "physics ": 7718,
      "_sort(arr):\n    '''": 7719,
      "oxygen, ": 7720,
      "self.current_file:\n            ": 7721,
      "историю ": 7722,
      "лучше. Как круги на воде ": 7723,
      "Вопрос: Как понять, что любовь настоящая": 7724,
      "immune system ": 7725,
      "контролиру": 7726,
      "контролировать события": 7727,
      "coffee_consu": 7728,
      "Вопрос: Что значит быть верным своей ": 7729,
      ":.2f}с": 7730,
      "arer": 7731,
      "a, b, ": 7732,
      "run(": 7733,
      "Ищи не готовые ответы, а задавай вопросы: 'Что ": 7734,
      "мгновения": 7735,
      "тобой. Пере": 7736,
      "уникаль": 7737,
      ": float) -> float:\n        '''": 7738,
      "производ": 7739,
      "require": 7740,
      "requests": 7741,
      "?\nОтвет: Луч": 7742,
      "последняя ": 7743,
      "найд": 7744,
      "найден": 7745,
      "неуверенности в се": 7746,
      "ервис ": 7747,
      "не справимся": 7748,
      "замеча": 7749,
      "замечать ": 7750,
      "copg": 7751,
      "copies ": 7752,
      "мало зависит от внешних услови": 7753,
      "старается дать ": 7754,
      "мира лучше. Как круги на воде ": 7755,
      "стойчиво": 7756,
      "дождя": 7757,
      "с достоинством, ": 7758,
      "мышлени": 7759,
      "работу.</s>": 7760,
      "\n    \n    @pytest.mark": 7761,
      "любимую ": 7762,
      "absorp": 7763,
      "симметри": 7764,
      "the body": 7765,
      "преодо": 7766,
      "преодолеть — посмотреть в лицо. Разбер": 7767,
      "! Попробуй ": 7768,
      "circulatory ": 7769,
      "size": 7770,
      "super().": 7771,
      "Вопрос: В чем разница ": 7772,
      "ступает ": 7773,
      "родник — ": 7774,
      "key для ": 7775,
      "ты сможешь ": 7776,
      "Вопрос: Ты не видел мой ": 7777,
      "трудно восстановить": 7778,
      "ть, значит — перестать позволять ": 7779,
      ". Она проходит через быт, труд": 7780,
      "опыт для будуще": 7781,
      "алгоритм": 7782,
      "?\nОтвет: Совесть — это внутренний компас": 7783,
      "?\nОтвет: Совесть — это внутренний судья": 7784,
      "Создание нового ": 7785,
      "сохранить ": 7786,
      "обещание ": 7787,
      "cription ": 7788,
      "маленькие радо": 7789,
      "carbon dioxid": 7790,
      "arr[j + 1]": 7791,
      "?\nОтвет: Настоящая любовь — это действие, а не только чувство": 7792,
      "?\nОтвет: Настоящая любовь — это выбор, который подтвержда": 7793,
      "max_workers": 7794,
      ", поддержка при": 7795,
      "здоровь": 7796,
      ". Люди, которые его 'лома": 7797,
      "olism": 7798,
      "olism ": 7799,
      "хрупкой и прекрасно": 7800,
      "?\nОтвет: Технология ": 7801,
      ")  # Ва": 7802,
      "cade": 7803,
      "last_failure_": 7804,
      "panel": 7805,
      "survi": 7806,
      "satellite ": 7807,
      "scien": 7808,
      "Фиксту": 7809,
      "Файл": 7810,
      "анти": 7811,
      "вместе": 7812,
      "двух ": 7813,
      "лнца ": 7814,
      "оказывается ": 7815,
      "пито": 7816,
      "элементов": 7817,
      "о чём ": 7818,
      "я положила ": 7819,
      "продолжать ": 7820,
      "пробивается": 7821,
      "index": 7822,
      "sequen": 7823,
      "вайся, накапли": 7824,
      "в отношениях": 7825,
      "измеряется ": 7826,
      "обрета": 7827,
      "left, ": 7828,
      "medical ": 7829,
      "memory ": 7830,
      "metabolism": 7831,
      "с возрастом, а с ": 7832,
      "душа, с которой ": 7833,
      "contextman": 7834,
      "сомнений": 7835,
      "нятие ": 7836,
      "друзья": 7837,
      "памяти": 7838,
      "верность себе. В ": 7839,
      "верного спутника.</s>": 7840,
      "система": 7841,
      "стимулом и ": 7842,
      "Вопрос: Почему некоторым ": 7843,
      "Москва": 7844,
      "component": 7845,
      ". Оно в принятии, ": 7846,
      "за то, что есть": 7847,
      "? Что ты сможешь ": 7848,
      "?\nОтвет: Дружба, ": 7849,
      "через раскаяние и изменение жизни.</s>": 7850,
      "овершенство ": 7851,
      "continuously ": 7852,
      "только в воображении.</s>": 7853,
      " самим": 7854,
      "\n\n# Тесты с ": 7855,
      "parts: ": 7856,
      ". Первое — ": 7857,
      "Тест с ": 7858,
      "принимает тебя ": 7859,
      "ack ho": 7860,
      "вместе, поддержива": 7861,
      "count': len(": 7862,
      "опыта. Можно быть старым и глупы": 7863,
      "ошибки, старается дать ": 7864,
      "?\nОтвет: Страхи часто рождаются из неизвест": 7865,
      "objects ": 7866,
      "красивые люди — те": 7867,
      "будущего, а того, что ": 7868,
      "buddy.": 7869,
      "авториза": 7870,
      "title, author_id, gen": 7871,
      "слабость, а ": 7872,
      "фундамента.</s>": 7873,
      "access to ": 7874,
      "свой путь с достоинством, ": 7875,
      "Payment(PaymentStrategy": 7876,
      "тем, кто рядом, сделать ": 7877,
      "?\nОтвет: Смысл в том, чтобы оставить добрый сле": 7878,
      "ежедневный выбор.</s>": 7879,
      "?\nОтвет: Баланс — в ": 7880,
      "TEXT,\n                    ": 7881,
      ". Принимать ее — ": 7882,
      "Вопрос: Можно ли жить в ": 7883,
      "пить яд в на": 7884,
      "ability видеть ": 7885,
      ": {e}')\n            return None": 7886,
      "_id = db.add_post(user": 7887,
      "несчастным, можно не иметь ничего ": 7888,
      "ности, любви. Внешняя ": 7889,
      "притягива": 7890,
      "self.collections[collection_name]": 7891,
      "длительность ": 7892,
      "винить себя или других, ": 7893,
      "Вопрос: Почему со временем ": 7894,
      "Circuit ": 7895,
      "relativity ": 7896,
      "мечты, поддержка при": 7897,
      "м. Мудрость — это ": 7898,
      "искусственный интеллект": 7899,
      "глубже, прощать быстре": 7900,
      ". Быть тем, кто вносит добро": 7901,
      ". Друг — это ": 7902,
      "?\nОтвет: Идеальных родителей не существует — есть ": 7903,
      ": что самое страшное может с": 7904,
      "продуктов": 7905,
      "отрудничестве. ": 7906,
      "ют', постепенно теряют ориента": 7907,
      "?\nОтвет: Баланс между разумом и чувствами — в их с": 7908,
      "(Shape": 7909,
      "* (s - ": 7910,
      "3D ": 7911,
      "CO₂": 7912,
      "Depend": 7913,
      "Factory": 7914,
      "SMS": 7915,
      "crolled": 7916,
      "giving и ": 7917,
      "pplications include ": 7918,
      "since": 7919,
      "small ": 7920,
      "vessel": 7921,
      "Автосохранение": 7922,
      "Таблиц": 7923,
      "влюбленности": 7924,
      "кварти": 7925,
      "л соедине": 7926,
      "узор": 7927,
      "уша ": 7928,
      "усили": 7929,
      "шения поступка": 7930,
      ", вот и ": 7931,
      ", таких как с": 7932,
      "проверен": 7933,
      "но?\nОтвет: Смысл в том, чтобы пройти свой путь с достоинством, ": 7934,
      "\n        results = []": 7935,
      "infection": 7936,
      "redund": 7937,
      "rests': ['": 7938,
      "поступи": 7939,
      "поймет ": 7940,
      "надлежат ": 7941,
      "направление даже в ту": 7942,
      "вокруг": 7943,
      "льстит, а говорит правду": 7944,
      "deliver": 7945,
      "забыть или оправда": 7946,
      "дерево": 7947,
      "тиры. Но совесть нельзя уничтожить ": 7948,
      "Вопрос: Как восстановить доверие ": 7949,
      "приятна": 7950,
      ", а то, что ты ей отда": 7951,
      "condition": 7952,
      "life ": 7953,
      "Получение ": 7954,
      "Последовательная ": 7955,
      "разума — ": 7956,
      "protocol": 7957,
      "problem": 7958,
      "расцветает. Самые ": 7959,
      "память о ": 7960,
      "abstractmethod": 7961,
      "м, трудностями, ": 7962,
      "директори": 7963,
      ". Со временем внешнее ": 7964,
      "базы данных": 7965,
      ". Он не ": 7966,
      ". Основные ": 7967,
      "feature extraction ": 7968,
      "в субботу": 7969,
      "твоим успеха": 7970,
      "?\nОтвет: Протокол для ": 7971,
      "конфли": 7972,
      "комфорт, ": 7973,
      "id INTEGER ": 7974,
      "?\nОтвет: Отлич": 7975,
      "?\nОтвет: Кажется": 7976,
      "achine learning ": 7977,
      ", который выносит приговор ": 7978,
      "} руб. ": 7979,
      ". Узнать ее можно по ": 7980,
      "messagebox.show": 7981,
      "min_conn": 7982,
      "автоматизации ": 7983,
      "теряет смысл?', 'Что я хо": 7984,
      "user_list = ": 7985,
      "свобода начинается внутри — когда ": 7986,
      ". Это не значит забыть или оправда": 7987,
      "nervous system ": 7988,
      "обид, а можно оставить ненуж": 7989,
      "маленькое доброе дело расходится дале": 7990,
      "организации ": 7991,
      "еще до совер": 7992,
      ". Если бы мы жили вечно, ни один момент не был бы precious. Осознание конечности заставляет ценить ": 7993,
      ", когда нужна. Настоящий друг ": 7994,
      "тебе интересно": 7995,
      "newsletter.": 7996,
      ". Настоящая свобода начинается внутри — когда ": 7997,
      "ками, но верит в ": 7998,
      "мелости меняться.</s>": 7999,
      "?\nОтвет: Прощение — это в первую ": 8000,
      "?\nОтвет: Истинная красота идет изнутри — это свет ": 8001,
      "достаточно хорошие. Те, кто любит безусловно, признает ": 8002,
      "Вопрос: Зачем нужна смер": 8003,
      ")\n        self.assertEqual": 8004,
      "?\nОтвет: Использование ": 8005,
      "Common ": 8006,
      "temperature ": 8007,
      "Process includes: ": 8008,
      "datetime.now().strftime": 8009,
      "factorial": 8010,
      "ошибок": 8011,
      "extreme": 8012,
      "notification_type == '": 8013,
      "должны быть ": 8014,
      "в повседневности — когда выбира": 8015,
      "Вопрос: Во сколько завтра выезжать ": 8016,
      "hypothes": 8017,
      "directory_": 8018,
      "indent}": 8019,
      "мимолёт": 8020,
      "Вопрос: Ты помнишь, где мы ": 8021,
      "все равно что пить яд в на": 8022,
      "по-разному. Счастлив тот, кто научился ": 8023,
      "pipeline": 8024,
      "vasya.code": 8025,
      "Давай вместе ": 8026,
      "й. Можно иметь все и быть несчастным, можно не иметь ничего ": 8027,
      "важно отличать одиночество ": 8028,
      ". Вырастить хороших детей, помочь ": 8029,
      "идеалов. Это состояние души": 8030,
      "умение видеть суть, принимать ": 8031,
      "Параллельная ": 8032,
      "growth, ": 8033,
      ". В тишине рождаются лучшие идеи, приходят ": 8034,
      "— она может спать, но всегда есть шанс ее разбудить через раскаяние и изменение жизни.</s>": 8035,
      "для другого — в позна": 8036,
      ").pack(side='left', padx=2)\n        ttk.Button(toolbar, text='": 8037,
      ". Не обязательно менять мир — достаточно не дать миру изменить тебя в худшую сторону": 8038,
      "олько из полной чаши можно щедро напоить других. Это не эгоизм, а самосохранение": 8039,
      "?\nОтвет: Прошлое нельзя изменить, но можно изменить его власть над ": 8040,
      "pivot": 8041,
      "y_id, 'Роман', 186": 8042,
      "уязвимо": 8043,
      ", чья душа светится через ": 8044,
      ": прощаем, принимаем, учимся ": 8045,
      "inheritance ": 8046,
      "?\nОтвет: Разговор": 8047,
      "proof-of-work ": 8048,
      "от изоляции. Первое — ": 8049,
      ". Счастье — не цель, а способ путешествия.</s>": 8050,
      ": {message}'\n\nclass ": 8051,
      "восприятия. Два ": 8052,
      "щее создается сегодня.</s>": 8053,
      "\nfrom typing import List": 8054,
      "binary_search(arr, targe": 8055,
      "доброты, искренности, любви. Внешняя ": 8056,
      ". Лучшее лекарство — подготовка и действие. Учис": 8057,
      "умении радоваться моменту, в гармонии ": 8058,
      "оно внутри. Деньги дают ": 8059,
      ". Прошлое — как чемодан: можно тащить его ": 8060,
      "перестаешь зависеть от чужого мнения, ": 8061,
      "Чувства показывают направление, разум прокладывает маршрут. Без чувств ": 8062,
      " быть вместе, поддержива": 8063,
      "'users', {\n        'name': '": 8064,
      "(\"%H:%": 8065,
      "-нибудь ": 8066,
      "/delay/": 8067,
      "<= 1:\n        return ": 8068,
      "@example.com": 8069,
      "Bearer": 8070,
      "Breaker": 8071,
      "CHAR": 8072,
      "CLOSE": 8073,
      "DEFAUL": 8074,
      "Earth": 8075,
      "JOIN ": 8076,
      "Menu": 8077,
      "M:%S\"": 8078,
      "Natural ": 8079,
      "Queue": 8080,
      "VARCHAR": 8081,
      "Web ": 8082,
      "WHERE ": 8083,
      "ZeroDivision": 8084,
      "batter": 8085,
      "basic ": 8086,
      "gmented ": 8087,
      "honest": 8088,
      "maria": 8089,
      "psycopg": 8090,
      "pendent ": 8091,
      "swapp": 8092,
      "txt": 8093,
      "vulnerabil": 8094,
      "{data_id": 8095,
      "Вообщ": 8096,
      "Использование\n": 8097,
      "Результа": 8098,
      "включают ": 8099,
      "описывающая ": 8100,
      "оценивать масшта": 8101,
      "рхите": 8102,
      "рце и быть ": 8103,
      "ссиона": 8104,
      "рое — выну": 8105,
      "профессиона": 8106,
      "individ": 8107,
      "inforcement ": 8108,
      "set_strategy": 8109,
      "attract": 8110,
      "Вопрос: Ты слы": 8111,
      "наполня": 8112,
      "enumerate": 8113,
      "encryp": 8114,
      "нева. Это не значит забыть или оправда": 8115,
      "неся свет": 8116,
      "м другом": 8117,
      "ны, но настоящи": 8118,
      "ны, без разума — ": 8119,
      "в программировании\nОтвет: ": 8120,
      "— даже маленькое доброе дело расходится дале": 8121,
      "не можем выбрать, где родиться, но можем выбрать, как жить. Не можем ": 8122,
      "излучает уверен": 8123,
      "рискова": 8124,
      "decentraliz": 8125,
      "measuring ": 8126,
      "стой совесть": 8127,
      "дом без фундамента.</s>": 8128,
      "actice ": 8129,
      "ть. Она проходит испытание быто": 8130,
      "выходны": 8131,
      "приводит к с": 8132,
      "?\nОтвет: Счастье — внутреннее состоя": 8133,
      "инстинк": 8134,
      "concurrent.fu": 8135,
      "состоит из ": 8136,
      "для третьего ": 8137,
      "mentedError('": 8138,
      "развертыва": 8139,
      "стояние души из приняти": 8140,
      "dostoevsk": 8141,
      "от жизни, а то, что ты ей отда": 8142,
      ", но можем выбирать реак": 8143,
      "удны. Идеал — когда сердце и голова ": 8144,
      "— это она. Любовь ": 8145,
      ", подобно ": 8146,
      "ить, а не оценивать масшта": 8147,
      "ное и взять только ценный ": 8148,
      "else None": 8149,
      "жденное состояние. Научиться быть с собой ": 8150,
      "\n    \n    def perimeter(self):\n        return ": 8151,
      " = tk.Menu": 8152,
      "само по себе": 8153,
      "'''\n        self.get_current_text_widget().event_": 8154,
      "'''\n        text_widget = self.get_current_text_widget()\n        content = text_widget.get('1.0', 'end-1c": 8155,
      " сейчас ": 8156,
      "with open(": 8157,
      "heavy_task": 8158,
      "значит fully принимать ": 8159,
      "? Расскажи": 8160,
      "similar ": 8161,
      "ь, развивайся, накапли": 8162,
      "ductor ": 8163,
      "мени гнева. Это не значит забыть или оправда": 8164,
      "?\nОтвет: Да, положи": 8165,
      "в современном ": 8166,
      ". В умении видеть ": 8167,
      "умрет другой. Простить ": 8168,
      ", если проживать его ": 8169,
      "любовь с первого взгляда": 8170,
      "родственная душа, с которой ": 8171,
      "beyond ": 8172,
      "ни не идеальны, но настоящи": 8173,
      ". Действие — ": 8174,
      "безрассудны. Идеал — когда сердце и голова ": 8175,
      "db.insert_document('users', {\n        'name': '": 8176,
      "00)\n    db.add_book('": 8177,
      "arr if x ": 8178,
      ", который показывает направление даже в ту": 8179,
      "white blood cell": 8180,
      "зволить времени делать ": 8181,
      "себя от бремени гнева. Это не значит забыть или оправда": 8182,
      "зависящее от ": 8183,
      "?\nОтвет: Счастье — это внутреннее состояние, которое мало зависит от внешних услови": 8184,
      "ми, растут вместе с ": 8185,
      "self._transaction_history": 8186,
      "cursor_factory": 8187,
      "выбор, второе — выну": 8188,
      "жить по-новому. Раны затягиваются, оставляя шрамы — ": 8189,
      "жить во дворце и быть ": 8190,
      "Расскаж": 8191,
      "NotImplementedError('": 8192,
      ". Ежедневный выбор": 8193,
      "— в промежутке между ": 8194,
      ", но не гаранти": 8195,
      "(self):\n        raise NotImplementedError('": 8196,
      "(self):\n        return f'{self.name} ": 8197,
      "?\nОтвет: Свобода — это возможность быть собой без ": 8198,
      "— значит освободить себя от бремени гнева. Это не значит забыть или оправда": 8199,
      "fossil fuel": 8200,
      "x for x in arr if x ": 8201,
      ", birth_year": 8202,
      "красота привлекает внимание, внутренняя — сердца. Со временем внешнее ": 8203,
      "та {amount} руб. ": 8204,
      "свой уголок мира лучше. Как круги на воде ": 8205,
      "после страсти остается уважение, ": 8206,
      "',\n        'interests': ['": 8207,
      "characteristic": 8208,
      "признаку: с этим человеком ты ": 8209,
      "Вопрос: Всегда ли ": 8210,
      "партнеру. Она проверяется ": 8211,
      "отношений с миром. Т": 8212,
      "?\nОтвет: Счастье в gratitude за ": 8213,
      "):\n        self.name = name": 8214,
      "Вопрос: Почему в одиночестве ": 8215,
      "generate('<<": 8216,
      "Notification(Notification):\n    def send": 8217,
      "?\nОтвет: Любовь к себе — основа ": 8218,
      "intelligen": 8219,
      "Вопрос: Почему люди с чистой совесть": 8220,
      "complex_calculation": 8221,
      "человека в одинаковых ": 8222,
      "лучшее. Они не идеальны, но настоящи": 8223,
      "могут чувствовать себя по-разному. Счастлив тот, кто научился ": 8224,
      ". Major ": 8225,
      "ную минуту": 8226,
      "твои мысли, мечты, поддержка при": 8227,
      ":\n                    self.state = '": 8228,
      ". Без доверия отношения ": 8229,
      "?\nОтвет: Мудрость приходит не с возрастом, а с ": 8230,
      "дежде, что умрет другой. Простить ": 8231,
      "ности, меняется, но не исчезает. Узнать ее можно по ": 8232,
      "https://httpbin.org": 8233,
      "has two ": 8234,
      "тно-ориентированное программирова": 8235,
      "ная. Это когда твои мысли, мечты, поддержка при": 8236,
      "написал код на ": 8237,
      "noise cancell": 8238,
      "услышать себя без ": 8239,
      "увядает, а внутреннее ": 8240,
      ". Говорят, ": 8241,
      "):\n        return f'Оплата {amount} руб. ": 8242,
      "):\n    def pay(self, amount):\n        return f'Оплата {amount} руб. ": 8243,
      "Главное — не застревать в боли": 8244,
      "Главное — не то, что ты взял от жизни, а то, что ты ей отда": 8245,
      "решения бездушны, без разума — ": 8246,
      "?\nОтвет: На столе, под ": 8247,
      "контролировать события, но можем выбирать реак": 8248,
      "не справимся. Лучшее лекарство — подготовка и действие. Учис": 8249,
      "\n    \n    @pytest.mark.": 8250,
      "Вопрос: В чем разница между ": 8251,
      "ть, значит — перестать позволять прошлому отравлять настоящее.</s>": 8252,
      ". Она проходит через быт, трудности, меняется, но не исчезает. Узнать ее можно по ": 8253,
      "опыт для будущего.</s>": 8254,
      "?\nОтвет: Совесть — это внутренний компас, который показывает направление даже в ту": 8255,
      "?\nОтвет: Совесть — это внутренний судья, который выносит приговор ": 8256,
      "carbon dioxide ": 8257,
      "?\nОтвет: Настоящая любовь — это выбор, который подтверждается ежеднев": 8258,
      ". Люди, которые его 'ломают', постепенно теряют ориента": 8259,
      "хрупкой и прекрасной.</s>": 8260,
      "стимулом и реак": 8261,
      "ошибки, старается дать лучшее. Они не идеальны, но настоящи": 8262,
      "красивые люди — те, чья душа светится через ": 8263,
      "будущего, а того, что не справимся. Лучшее лекарство — подготовка и действие. Учис": 8264,
      "Payment(PaymentStrategy):\n    def pay(self, amount):\n        return f'Оплата {amount} руб. ": 8265,
      "тем, кто рядом, сделать свой уголок мира лучше. Как круги на воде ": 8266,
      ". Принимать ее — значит fully принимать ": 8267,
      "глубже, прощать быстрее. Она не враг, а естественная часть цикла": 8268,
      "?\nОтвет: Идеальных родителей не существует — есть достаточно хорошие. Те, кто любит безусловно, признает ": 8269,
      ": что самое страшное может случиться": 8270,
      "(Shape):\n    def __init__(self, ": 8271,
      "* (s - self.": 8272,
      "надлежат партнеру. Она проверяется ": 8273,
      "расцветает. Самые красивые люди — те, чья душа светится через ": 8274,
      "обид, а можно оставить ненужное и взять только ценный ": 8275,
      "еще до совершения поступка": 8276,
      ". Если бы мы жили вечно, ни один момент не был бы precious. Осознание конечности заставляет ценить настоящее, любить ": 8277,
      ", когда нужна. Настоящий друг поймет ": 8278,
      "?\nОтвет: Прощение — это в первую очередь ": 8279,
[...]
